
#ifdef __has_attribute
#define HAVE_ATTRIBUTE(x) __has_attribute(x)
#else
#define HAVE_ATTRIBUTE(x) 0
#endif
#if HAVE_ATTRIBUTE(aligned) || (defined(__GNUC__) && !defined(__clang__))
#define DATA_ALIGN_ATTRIBUTE __attribute__((aligned(4)))
#else
#define DATA_ALIGN_ATTRIBUTE
#endif

const unsigned char model_data[] DATA_ALIGN_ATTRIBUTE = {0x1c, 0x00, 0x00, 0x00, 0x54, 0x46, 0x4c, 0x33, 0x00, 0x00, 0x12, 0x00, 0x1c, 0x00, 0x04, 0x00, 0x08, 0x00, 0x0c, 0x00, 0x10, 0x00, 0x14, 0x00, 0x00, 0x00, 0x18, 0x00, 0x12, 0x00, 0x00, 0x00, 0x03, 0x00, 0x00, 0x00, 0x14, 0x00, 0x00, 0x00, 0x1c, 0x00, 0x00, 0x00, 0xa8, 0x00, 0x00, 0x00, 0x1c, 0x00, 0x00, 0x00, 0x50, 0x00, 0x00, 0x00, 0x02, 0x00, 0x00, 0x00, 0x4c, 0x03, 0x00, 0x00, 0x6c, 0x01, 0x00, 0x00, 0x01, 0x00, 0x00, 0x00, 0xb0, 0x00, 0x00, 0x00, 0x0d, 0x00, 0x00, 0x00, 0x88, 0x1d, 0x00, 0x00, 0x84, 0x1d, 0x00, 0x00, 0x30, 0x1c, 0x00, 0x00, 0x8c, 0x1b, 0x00, 0x00, 0x18, 0x1b, 0x00, 0x00, 0xc8, 0x0a, 0x00, 0x00, 0x74, 0x04, 0x00, 0x00, 0x90, 0x03, 0x00, 0x00, 0x68, 0x1d, 0x00, 0x00, 0x64, 0x1d, 0x00, 0x00, 0x60, 0x1d, 0x00, 0x00, 0x5c, 0x1d, 0x00, 0x00, 0x38, 0x00, 0x00, 0x00, 0x01, 0x00, 0x00, 0x00, 0x0c, 0x00, 0x00, 0x00, 0x08, 0x00, 0x0c, 0x00, 0x04, 0x00, 0x08, 0x00, 0x08, 0x00, 0x00, 0x00, 0x08, 0x00, 0x00, 0x00, 0x0c, 0x00, 0x00, 0x00, 0x13, 0x00, 0x00, 0x00, 0x6d, 0x69, 0x6e, 0x5f, 0x72, 0x75, 0x6e, 0x74, 0x69, 0x6d, 0x65, 0x5f, 0x76, 0x65, 0x72, 0x73, 0x69, 0x6f, 0x6e, 0x00, 0x36, 0xe4, 0xff, 0xff, 0x04, 0x00, 0x00, 0x00, 0x10, 0x00, 0x00, 0x00, 0x31, 0x2e, 0x35, 0x2e, 0x30, 0x00, 0x00, 0x00, 0x00, 0x00, 0x00, 0x00, 0x00, 0x00, 0x00, 0x00, 0x0f, 0x00, 0x00, 0x00, 0x4d, 0x4c, 0x49, 0x52, 0x20, 0x43, 0x6f, 0x6e, 0x76, 0x65, 0x72, 0x74, 0x65, 0x64, 0x2e, 0x00, 0x00, 0x00, 0x0e, 0x00, 0x18, 0x00, 0x04, 0x00, 0x08, 0x00, 0x0c, 0x00, 0x10, 0x00, 0x14, 0x00, 0x0e, 0x00, 0x00, 0x00, 0x14, 0x00, 0x00, 0x00, 0x40, 0x00, 0x00, 0x00, 0x44, 0x00, 0x00, 0x00, 0x48, 0x00, 0x00, 0x00, 0x58, 0x00, 0x00, 0x00, 0x0b, 0x00, 0x00, 0x00, 0x7c, 0x1c, 0x00, 0x00, 0x0c, 0x1c, 0x00, 0x00, 0x08, 0x1b, 0x00, 0x00, 0x70, 0x1a, 0x00, 0x00, 0x14, 0x1a, 0x00, 0x00, 0xc0, 0x09, 0x00, 0x00, 0x6c, 0x03, 0x00, 0x00, 0x64, 0x02, 0x00, 0x00, 0x90, 0x01, 0x00, 0x00, 0xf4, 0x00, 0x00, 0x00, 0x7c, 0x00, 0x00, 0x00, 0x01, 0x00, 0x00, 0x00, 0x00, 0x00, 0x00, 0x00, 0x01, 0x00, 0x00, 0x00, 0x0a, 0x00, 0x00, 0x00, 0x04, 0x00, 0x00, 0x00, 0xec, 0x01, 0x00, 0x00, 0x38, 0x01, 0x00, 0x00, 0xa0, 0x00, 0x00, 0x00, 0x1c, 0x00, 0x00, 0x00, 0x04, 0x00, 0x00, 0x00, 0x6d, 0x61, 0x69, 0x6e, 0x00, 0x00, 0x0e, 0x00, 0x18, 0x00, 0x08, 0x00, 0x0c, 0x00, 0x10, 0x00, 0x07, 0x00, 0x14, 0x00, 0x0e, 0x00, 0x00, 0x00, 0x00, 0x00, 0x00, 0x09, 0x01, 0x00, 0x00, 0x00, 0x1c, 0x00, 0x00, 0x00, 0x10, 0x00, 0x00, 0x00, 0x04, 0x00, 0x00, 0x00, 0x12, 0xe5, 0xff, 0xff, 0x00, 0x00, 0x80, 0x3f, 0x01, 0x00, 0x00, 0x00, 0x0a, 0x00, 0x00, 0x00, 0x01, 0x00, 0x00, 0x00, 0x09, 0x00, 0x00, 0x00, 0x2e, 0xfe, 0xff, 0xff, 0x00, 0x00, 0x00, 0x19, 0x01, 0x00, 0x00, 0x00, 0x3c, 0xe4, 0xff, 0xff, 0x14, 0x00, 0x00, 0x00, 0x0b, 0x00, 0x00, 0x00, 0x24, 0x00, 0x00, 0x00, 0x30, 0x00, 0x00, 0x00, 0x10, 0x00, 0x00, 0x00, 0x02, 0x00, 0x00, 0x00, 0x01, 0x00, 0x00, 0x00, 0x03, 0x00, 0x00, 0x00, 0x02, 0x00, 0x00, 0x00, 0xff, 0xff, 0xff, 0xff, 0x03, 0x00, 0x00, 0x00, 0x08, 0x00, 0x00, 0x00, 0x49, 0x64, 0x65, 0x6e, 0x74, 0x69, 0x74, 0x79, 0x00, 0x00, 0x00, 0x00, 0x24, 0xe4, 0xff, 0xff, 0x7a, 0xff, 0xff, 0xff, 0x00, 0x00, 0x00, 0x08, 0x18, 0x00, 0x00, 0x00, 0x0c, 0x00, 0x00, 0x00, 0x04, 0x00, 0x00, 0x00, 0x3c, 0xe4, 0xff, 0xff, 0x01, 0x00, 0x00, 0x00, 0x09, 0x00, 0x00, 0x00, 0x03, 0x00, 0x00, 0x00, 0x08, 0x00, 0x00, 0x00, 0x06, 0x00, 0x00, 0x00, 0x03, 0x00, 0x00, 0x00, 0xb0, 0xe4, 0xff, 0xff, 0x14, 0x00, 0x00, 0x00, 0x0a, 0x00, 0x00, 0x00, 0x24, 0x00, 0x00, 0x00, 0x40, 0x00, 0x00, 0x00, 0x10, 0x00, 0x00, 0x00, 0x02, 0x00, 0x00, 0x00, 0x01, 0x00, 0x00, 0x00, 0x03, 0x00, 0x00, 0x00, 0x02, 0x00, 0x00, 0x00, 0xff, 0xff, 0xff, 0xff, 0x03, 0x00, 0x00, 0x00, 0x1a, 0x00, 0x00, 0x00, 0x73, 0x65, 0x71, 0x75, 0x65, 0x6e, 0x74, 0x69, 0x61, 0x6c, 0x2f, 0x64, 0x65, 0x6e, 0x73, 0x65, 0x5f, 0x32, 0x2f, 0x42, 0x69, 0x61, 0x73, 0x41, 0x64, 0x64, 0x00, 0x00, 0x04, 0xe6, 0xff, 0xff, 0x00, 0x00, 0x0e, 0x00, 0x14, 0x00, 0x00, 0x00, 0x08, 0x00, 0x0c, 0x00, 0x07, 0x00, 0x10, 0x00, 0x0e, 0x00, 0x00, 0x00, 0x00, 0x00, 0x00, 0x08, 0x1c, 0x00, 0x00, 0x00, 0x10, 0x00, 0x00, 0x00, 0x04, 0x00, 0x00, 0x00, 0x4e, 0xff, 0xff, 0xff, 0x00, 0x00, 0x00, 0x01, 0x01, 0x00, 0x00, 0x00, 0x08, 0x00, 0x00, 0x00, 0x03, 0x00, 0x00, 0x00, 0x07, 0x00, 0x00, 0x00, 0x05, 0x00, 0x00, 0x00, 0x02, 0x00, 0x00, 0x00, 0x48, 0xe5, 0xff, 0xff, 0x14, 0x00, 0x00, 0x00, 0x09, 0x00, 0x00, 0x00, 0x24, 0x00, 0x00, 0x00, 0x58, 0x00, 0x00, 0x00, 0x10, 0x00, 0x00, 0x00, 0x02, 0x00, 0x00, 0x00, 0x01, 0x00, 0x00, 0x00, 0x0c, 0x00, 0x00, 0x00, 0x02, 0x00, 0x00, 0x00, 0xff, 0xff, 0xff, 0xff, 0x0c, 0x00, 0x00, 0x00, 0x32, 0x00, 0x00, 0x00, 0x73, 0x65, 0x71, 0x75, 0x65, 0x6e, 0x74, 0x69, 0x61, 0x6c, 0x2f, 0x64, 0x65, 0x6e, 0x73, 0x65, 0x5f, 0x31, 0x2f, 0x52, 0x65, 0x6c, 0x75, 0x3b, 0x73, 0x65, 0x71, 0x75, 0x65, 0x6e, 0x74, 0x69, 0x61, 0x6c, 0x2f, 0x64, 0x65, 0x6e, 0x73, 0x65, 0x5f, 0x31, 0x2f, 0x42, 0x69, 0x61, 0x73, 0x41, 0x64, 0x64, 0x00, 0x00, 0xb4, 0xe6, 0xff, 0xff, 0x00, 0x00, 0x0e, 0x00, 0x16, 0x00, 0x00, 0x00, 0x08, 0x00, 0x0c, 0x00, 0x07, 0x00, 0x10, 0x00, 0x0e, 0x00, 0x00, 0x00, 0x00, 0x00, 0x00, 0x08, 0x24, 0x00, 0x00, 0x00, 0x18, 0x00, 0x00, 0x00, 0x0c, 0x00, 0x00, 0x00, 0x00, 0x00, 0x06, 0x00, 0x08, 0x00, 0x07, 0x00, 0x06, 0x00, 0x00, 0x00, 0x00, 0x00, 0x00, 0x01, 0x01, 0x00, 0x00, 0x00, 0x07, 0x00, 0x00, 0x00, 0x03, 0x00, 0x00, 0x00, 0x00, 0x00, 0x00, 0x00, 0x04, 0x00, 0x00, 0x00, 0x01, 0x00, 0x00, 0x00, 0x00, 0x00, 0x0a, 0x00, 0x0c, 0x00, 0x07, 0x00, 0x00, 0x00, 0x08, 0x00, 0x0a, 0x00, 0x00, 0x00, 0x00, 0x00, 0x00, 0x09, 0x01, 0x00, 0x00, 0x00, 0x18, 0xe6, 0xff, 0xff, 0x14, 0x00, 0x00, 0x00, 0x08, 0x00, 0x00, 0x00, 0x24, 0x00, 0x00, 0x00, 0x54, 0x00, 0x00, 0x00, 0x10, 0x00, 0x00, 0x00, 0x02, 0x00, 0x00, 0x00, 0x01, 0x00, 0x00, 0x00, 0x20, 0x00, 0x00, 0x00, 0x02, 0x00, 0x00, 0x00, 0xff, 0xff, 0xff, 0xff, 0x20, 0x00, 0x00, 0x00, 0x2e, 0x00, 0x00, 0x00, 0x73, 0x65, 0x71, 0x75, 0x65, 0x6e, 0x74, 0x69, 0x61, 0x6c, 0x2f, 0x64, 0x65, 0x6e, 0x73, 0x65, 0x2f, 0x52, 0x65, 0x6c, 0x75, 0x3b, 0x73, 0x65, 0x71, 0x75, 0x65, 0x6e, 0x74, 0x69, 0x61, 0x6c, 0x2f, 0x64, 0x65, 0x6e, 0x73, 0x65, 0x2f, 0x42, 0x69, 0x61, 0x73, 0x41, 0x64, 0x64, 0x00, 0x00, 0x24, 0xe6, 0xff, 0xff, 0x7a, 0xe7, 0xff, 0xff, 0x04, 0x00, 0x00, 0x00, 0x90, 0x00, 0x00, 0x00, 0x60, 0x87, 0xc2, 0x3e, 0x1a, 0x3e, 0xa5, 0xbe, 0x17, 0x0a, 0xc0, 0xbe, 0x56, 0xec, 0x02, 0x3f, 0x2c, 0x81, 0x06, 0x3f, 0x16, 0x0e, 0xa7, 0xbc, 0xab, 0xc6, 0x0b, 0xbf, 0x2c, 0xe5, 0x8e, 0xbe, 0xd7, 0xed, 0x0b, 0xbf, 0x62, 0x8f, 0x3d, 0xbf, 0x80, 0xdb, 0x34, 0xbe, 0x2a, 0x7b, 0x97, 0x3e, 0xea, 0xa0, 0x25, 0xbd, 0xf3, 0x5c, 0x33, 0xbe, 0x28, 0xff, 0x50, 0xbf, 0x8b, 0xe8, 0xb8, 0xbe, 0x5f, 0x5c, 0x63, 0xbe, 0x6a, 0xf3, 0xfe, 0x3e, 0xc2, 0x3f, 0x3f, 0x3e, 0xc6, 0xc2, 0xb5, 0x3e, 0xfc, 0xd0, 0xca, 0x3e, 0xd2, 0xf6, 0xc4, 0xbe, 0x06, 0xf1, 0xe8, 0xbe, 0x49, 0x6a, 0xd5, 0x3e, 0xc2, 0x75, 0xfd, 0xbe, 0xa7, 0x09, 0xa5, 0x3b, 0xc3, 0x5f, 0xba, 0xbe, 0x71, 0x8b, 0xfa, 0xbe, 0x9f, 0xd5, 0x44, 0x3e, 0x4a, 0x82, 0xe2, 0x3e, 0x9c, 0xff, 0x86, 0x3e, 0x60, 0x81, 0x00, 0xbf, 0x1d, 0x98, 0xe2, 0x3e, 0x20, 0x14, 0x9b, 0xbe, 0x21, 0x00, 0x40, 0xbe, 0x56, 0x1f, 0x1c, 0x3f, 0x82, 0xe7, 0xff, 0xff, 0x10, 0x00, 0x00, 0x00, 0x07, 0x00, 0x00, 0x00, 0x14, 0x00, 0x00, 0x00, 0x30, 0x00, 0x00, 0x00, 0x02, 0x00, 0x00, 0x00, 0x03, 0x00, 0x00, 0x00, 0x0c, 0x00, 0x00, 0x00, 0x19, 0x00, 0x00, 0x00, 0x73, 0x65, 0x71, 0x75, 0x65, 0x6e, 0x74, 0x69, 0x61, 0x6c, 0x2f, 0x64, 0x65, 0x6e, 0x73, 0x65, 0x5f, 0x32, 0x2f, 0x4d, 0x61, 0x74, 0x4d, 0x75, 0x6c, 0x00, 0x00, 0x00, 0x04, 0xe7, 0xff, 0xff, 0x5a, 0xe8, 0xff, 0xff, 0x04, 0x00, 0x00, 0x00, 0x00, 0x06, 0x00, 0x00, 0x5f, 0x29, 0xff, 0x3d, 0x65, 0xd5, 0x8f, 0xbe, 0x6f, 0x4f, 0x9e, 0x3e, 0x99, 0x55, 0x7d, 0xbe, 0xe6, 0x3c, 0xea, 0xbd, 0x7e, 0x12, 0x95, 0xbe, 0x0b, 0xfc, 0x82, 0xbd, 0xd0, 0x87, 0x76, 0x3e, 0x5e, 0x2d, 0x8a, 0x3e, 0x79, 0x11, 0x3b, 0x3e, 0x99, 0x73, 0x49, 0xbe, 0xe7, 0xd0, 0x83, 0xbe, 0x23, 0x50, 0x28, 0x3e, 0x2f, 0x55, 0x88, 0xbd, 0x93, 0x51, 0x81, 0xbe, 0x8a, 0x14, 0x89, 0xbc, 0x84, 0x93, 0x23, 0xbc, 0x20, 0x3c, 0xc9, 0xbe, 0xec, 0xad, 0xa4, 0x3c, 0x54, 0x8a, 0xd2, 0x3d, 0x5a, 0xe7, 0xbc, 0xbe, 0x04, 0x22, 0xad, 0xbb, 0xbc, 0xfd, 0x85, 0xbe, 0x4e, 0x71, 0xb2, 0x3e, 0xca, 0xfa, 0xc1, 0xbe, 0x37, 0x25, 0x2b, 0xbe, 0x0e, 0xb5, 0x24, 0x3c, 0xff, 0x24, 0xa7, 0xbe, 0x1f, 0x72, 0x7b, 0x3e, 0xa7, 0x0c, 0x87, 0xbe, 0x59, 0xe6, 0xc7, 0x3d, 0xaf, 0x93, 0x5e, 0x3e, 0x70, 0xc7, 0xb9, 0xbc, 0x40, 0xcf, 0xd2, 0x3c, 0x6c, 0xd8, 0x92, 0x3d, 0x67, 0x9a, 0x76, 0x3d, 0x20, 0xe0, 0x8a, 0x3e, 0xad, 0xe8, 0xf2, 0xbe, 0x50, 0x50, 0x93, 0x3d, 0xe5, 0x1f, 0xe9, 0xbd, 0x72, 0x2c, 0x26, 0x3e, 0x42, 0xd3, 0x2a, 0xbe, 0xdb, 0xca, 0x1c, 0x3e, 0xcc, 0x97, 0xb8, 0x3e, 0x76, 0x38, 0x6b, 0xbe, 0x1e, 0xfe, 0xef, 0xbc, 0x2e, 0xf8, 0xfc, 0x3c, 0xcb, 0x9d, 0x33, 0x3e, 0xef, 0x77, 0xeb, 0x3d, 0x0b, 0x84, 0x10, 0xbe, 0x3b, 0x3a, 0x81, 0xbe, 0x20, 0xae, 0x69, 0x3c, 0xb2, 0xf6, 0xa6, 0xbe, 0x81, 0x8e, 0xf8, 0xbe, 0x00, 0xae, 0xda, 0x3a, 0xba, 0xa0, 0xe2, 0xbd, 0xef, 0x85, 0x9b, 0x3e, 0x93, 0xdd, 0x94, 0xbe, 0x0c, 0x54, 0xd8, 0xbe, 0xcf, 0x29, 0x02, 0xbd, 0x26, 0x13, 0x02, 0xbe, 0xe9, 0x6e, 0x28, 0xbe, 0x81, 0x68, 0x03, 0x3d, 0x37, 0xd2, 0x45, 0x3d, 0x2c, 0x78, 0x91, 0x3e, 0x5a, 0x85, 0x22, 0x3e, 0x84, 0xd0, 0xa7, 0x3d, 0xd2, 0x32, 0xf7, 0xbd, 0x13, 0xca, 0xae, 0xbd, 0x9b, 0x69, 0x63, 0xbd, 0xd0, 0x36, 0x01, 0x3e, 0x1e, 0xb8, 0x6b, 0x3e, 0x54, 0x74, 0x97, 0xbe, 0x73, 0x6f, 0x95, 0xbe, 0x19, 0xbc, 0xb4, 0xbd, 0x72, 0x32, 0x23, 0x3e, 0x6c, 0x63, 0x6c, 0xbe, 0x0b, 0xe4, 0xf9, 0x3e, 0x74, 0xd0, 0x16, 0xbd, 0xbe, 0xb1, 0x8e, 0xbd, 0xc3, 0x2a, 0x3c, 0xbe, 0x8f, 0x1b, 0x31, 0xbd, 0xc9, 0x1f, 0x08, 0x3e, 0xad, 0x03, 0x66, 0x3e, 0xab, 0x97, 0xbd, 0xbd, 0x7e, 0xea, 0xae, 0xbe, 0x00, 0x5a, 0x1b, 0x3a, 0xdb, 0xfe, 0xb3, 0xbd, 0xcb, 0x9b, 0x86, 0x3d, 0x5c, 0x52, 0xb8, 0x3d, 0x26, 0xed, 0x19, 0xbe, 0xbe, 0x7f, 0xc0, 0xbe, 0x52, 0x95, 0x7d, 0x3c, 0x8d, 0x90, 0xba, 0xbe, 0x5b, 0x3b, 0x91, 0x3e, 0x1f, 0xbb, 0x81, 0xbd, 0x76, 0xaa, 0x3f, 0xbe, 0xe1, 0xce, 0x8d, 0x3e, 0xfe, 0xa8, 0x72, 0x3e, 0xab, 0x88, 0x66, 0xbe, 0x87, 0x5a, 0x99, 0xbe, 0x38, 0x45, 0xe5, 0xbd, 0xcb, 0x9d, 0x8c, 0xbd, 0x78, 0x52, 0x1f, 0x3d, 0x86, 0xce, 0xa6, 0x3e, 0x67, 0x84, 0x4b, 0x3c, 0x44, 0x71, 0x5f, 0x3d, 0xc3, 0x93, 0x31, 0xbd, 0xf7, 0x18, 0x66, 0x3e, 0xf0, 0x4e, 0xee, 0x3d, 0x0a, 0x34, 0x0d, 0xbd, 0x2b, 0xc2, 0xbd, 0xbe, 0x63, 0x7a, 0x20, 0xbd, 0xb4, 0xbd, 0x88, 0xbe, 0x7d, 0x50, 0x92, 0x3e, 0x20, 0xc5, 0x20, 0xbd, 0xe3, 0x58, 0xb4, 0xbd, 0x49, 0xf4, 0x45, 0xbe, 0x50, 0xb4, 0xfc, 0x3d, 0x15, 0x76, 0x60, 0x3e, 0x7e, 0x18, 0xba, 0xbe, 0x70, 0x7a, 0xa1, 0x3d, 0x09, 0xd9, 0xaa, 0xbc, 0xec, 0xb8, 0x20, 0xbc, 0x5b, 0xb5, 0x84, 0x3e, 0x43, 0xe4, 0xbb, 0x3e, 0x59, 0x5f, 0x3a, 0x3d, 0xc7, 0x93, 0x9e, 0x3e, 0x50, 0x13, 0x18, 0x3e, 0xd8, 0x7f, 0xf2, 0xbd, 0x5e, 0x9c, 0x7b, 0x3e, 0x6b, 0x8c, 0x9f, 0xbe, 0x0b, 0x85, 0xd3, 0xbd, 0xd7, 0x6f, 0x44, 0x3c, 0xd0, 0x7a, 0x37, 0xbd, 0x43, 0x15, 0x57, 0x3e, 0x99, 0xbd, 0x04, 0xbd, 0x7e, 0xcd, 0xbe, 0xbe, 0x5f, 0xc0, 0xa1, 0x3e, 0x6d, 0x45, 0x34, 0x3d, 0x6f, 0xef, 0x37, 0x3e, 0x9e, 0x9e, 0xfb, 0x3d, 0xb4, 0xb2, 0x7a, 0xbe, 0xd8, 0xfc, 0x9d, 0xbe, 0x09, 0xff, 0xb7, 0xbe, 0x4f, 0x25, 0x94, 0xbe, 0x49, 0xe3, 0x9d, 0xbd, 0x06, 0x81, 0x18, 0x3e, 0x6c, 0xfe, 0xc4, 0x3d, 0x98, 0xda, 0x49, 0xbe, 0x0e, 0x89, 0x5f, 0x3e, 0xe0, 0x34, 0x99, 0x3e, 0xb1, 0xf5, 0x29, 0xbe, 0x54, 0x35, 0xaa, 0xbd, 0x8d, 0x74, 0xbf, 0xbd, 0xf1, 0xa7, 0xa6, 0xbe, 0x6d, 0xa0, 0x48, 0xbe, 0x2c, 0x2f, 0x16, 0xbe, 0x30, 0xf0, 0x04, 0x3e, 0x85, 0x63, 0x09, 0x3e, 0x43, 0x84, 0x5e, 0x3e, 0xee, 0xb6, 0x76, 0xbe, 0x9f, 0x12, 0x94, 0x3e, 0x90, 0xb4, 0x50, 0x3d, 0x93, 0x25, 0xaf, 0xbd, 0x32, 0xa7, 0xce, 0x3e, 0x7b, 0x57, 0xd5, 0xbd, 0x71, 0x5c, 0xa5, 0xbd, 0x51, 0xf2, 0xe5, 0xbd, 0xa4, 0xaa, 0x76, 0x3e, 0xc2, 0x68, 0x96, 0xbd, 0x3b, 0x15, 0x76, 0x3e, 0x26, 0xc2, 0x9e, 0xbe, 0x26, 0x65, 0x84, 0xbe, 0x52, 0x2d, 0xbe, 0xbb, 0x74, 0xca, 0x4b, 0xbe, 0xeb, 0x7f, 0x77, 0xbc, 0x62, 0xd6, 0x06, 0x3f, 0x07, 0x5e, 0x55, 0x3e, 0x54, 0xe7, 0x8d, 0xbe, 0x9f, 0x92, 0xb8, 0x3d, 0xec, 0xf1, 0xd5, 0x3e, 0x93, 0x75, 0x64, 0xbe, 0xe1, 0xa8, 0x57, 0xbd, 0xbf, 0x51, 0x01, 0xbe, 0x90, 0xc9, 0xde, 0xbd, 0xf6, 0xa3, 0xbc, 0x3e, 0x52, 0xfb, 0xc5, 0xbd, 0x40, 0xf0, 0x57, 0x3d, 0x44, 0x8a, 0x7c, 0xbe, 0x40, 0x2b, 0xd1, 0xbd, 0x07, 0x86, 0x48, 0xbe, 0x9e, 0xed, 0x8e, 0x3e, 0x30, 0xe7, 0x2f, 0xbd, 0x59, 0xdc, 0xb7, 0xbe, 0xb7, 0x1b, 0x3d, 0xbe, 0x7c, 0x0e, 0x1c, 0xbe, 0x7f, 0x37, 0x21, 0xbe, 0xd1, 0x27, 0x0e, 0xbe, 0xe8, 0x29, 0xf5, 0xbd, 0x6d, 0x16, 0x2f, 0xbd, 0x85, 0x65, 0x29, 0xbe, 0xbf, 0x6d, 0x92, 0x3e, 0xc2, 0xa1, 0xa7, 0x3e, 0x4b, 0x32, 0x14, 0xbe, 0xba, 0xfa, 0x69, 0xbd, 0xa2, 0xb5, 0x64, 0x3e, 0xe9, 0x14, 0x01, 0xbe, 0xee, 0x17, 0x47, 0x3d, 0x7e, 0x76, 0xd9, 0xbe, 0xda, 0x8a, 0x44, 0x3e, 0x0e, 0x9b, 0x19, 0xbe, 0xe3, 0xe4, 0xcf, 0xbe, 0xf5, 0x1a, 0x68, 0xbe, 0xcd, 0xef, 0x07, 0xbe, 0xe3, 0x50, 0xb8, 0xbe, 0x7d, 0x7c, 0x63, 0x3e, 0xd4, 0x51, 0xe1, 0xbd, 0x08, 0xb9, 0xb5, 0xbe, 0xcb, 0x6e, 0xc2, 0x3d, 0xc9, 0x68, 0x8f, 0x3d, 0x08, 0xca, 0x81, 0xbd, 0x5e, 0x73, 0x9a, 0xbe, 0x01, 0x35, 0xdb, 0x3d, 0x52, 0xb0, 0x3a, 0x3e, 0x33, 0x91, 0x97, 0x3e, 0x00, 0x61, 0xba, 0xba, 0x9b, 0x05, 0x1a, 0xbe, 0x78, 0x1b, 0x20, 0x3c, 0x11, 0x96, 0x90, 0x3e, 0x05, 0x8c, 0x94, 0xbe, 0xe7, 0xa3, 0x42, 0xbe, 0xd1, 0xce, 0x55, 0x3e, 0x86, 0xf9, 0x38, 0x3e, 0x2b, 0xfe, 0x99, 0xbe, 0x93, 0x7e, 0x9e, 0x3d, 0x73, 0x61, 0x0a, 0xbe, 0x30, 0x6d, 0x88, 0x3c, 0x42, 0xa7, 0x4d, 0xbe, 0x27, 0x67, 0xba, 0xbe, 0x15, 0xa2, 0x5f, 0xbe, 0x7a, 0x87, 0x3b, 0x3e, 0x6d, 0x07, 0x19, 0x3e, 0x0e, 0x01, 0x15, 0x3e, 0x1f, 0x7e, 0xe0, 0x3d, 0xc7, 0x7c, 0xca, 0x3c, 0x1f, 0xc5, 0x16, 0xbe, 0x53, 0x2b, 0x72, 0xbe, 0x97, 0x80, 0x6d, 0xbe, 0x0e, 0xf1, 0x7f, 0x3e, 0x86, 0x3a, 0x9c, 0x3d, 0x20, 0x8d, 0x99, 0xbe, 0xeb, 0x26, 0x8b, 0xbe, 0x85, 0xdb, 0x00, 0xbe, 0x49, 0x49, 0x4d, 0xbd, 0x2d, 0x01, 0x8e, 0x3e, 0xa7, 0xaf, 0x0c, 0xbe, 0xfa, 0xde, 0x88, 0xbe, 0x38, 0xfe, 0x62, 0x3d, 0x66, 0x74, 0xc7, 0x3e, 0x53, 0x46, 0xbb, 0x3e, 0xdf, 0x30, 0x25, 0x3c, 0x26, 0x5b, 0x2d, 0xbd, 0x4f, 0x3f, 0xe0, 0xbd, 0x8b, 0x98, 0x9c, 0x3d, 0xa3, 0x58, 0xa7, 0xbe, 0x03, 0x51, 0x2e, 0x3e, 0x60, 0x76, 0x12, 0xbe, 0xea, 0xfb, 0x02, 0xbe, 0x3f, 0x41, 0xa3, 0xbe, 0x4c, 0x96, 0x41, 0x3d, 0xc1, 0x60, 0x0d, 0x3e, 0x2c, 0x60, 0xdf, 0x3e, 0xcf, 0x7e, 0xd1, 0x3c, 0xc4, 0x78, 0x83, 0x3e, 0x6c, 0x5d, 0x5a, 0xbe, 0x49, 0x7e, 0x2b, 0x3e, 0x53, 0xb5, 0x9f, 0xbe, 0x19, 0x75, 0xa8, 0x3e, 0xfe, 0xd4, 0xb7, 0xbe, 0x7f, 0x96, 0x6b, 0x3e, 0x36, 0x78, 0x26, 0xbe, 0x16, 0xce, 0x52, 0x3d, 0xa6, 0x3a, 0x0a, 0x3e, 0xb4, 0xc2, 0x18, 0xbe, 0x58, 0xa9, 0x1d, 0x3d, 0x3f, 0xee, 0x65, 0xbe, 0x41, 0xc9, 0x82, 0x3c, 0xad, 0xbf, 0x5b, 0xbc, 0x2a, 0xde, 0x8e, 0xbe, 0x12, 0x61, 0x0c, 0x3e, 0x7f, 0xcd, 0xda, 0x3d, 0x30, 0x19, 0xff, 0x3e, 0xac, 0x38, 0x0b, 0xbf, 0xeb, 0x9c, 0xfe, 0x3d, 0xcd, 0xb7, 0xab, 0xbe, 0x80, 0xdd, 0x45, 0x3d, 0x6f, 0x13, 0x0d, 0x3d, 0x01, 0xdc, 0x7c, 0x3e, 0x2d, 0xea, 0x98, 0xbd, 0xea, 0xeb, 0x35, 0xbb, 0xc7, 0xf8, 0x5f, 0xbe, 0x49, 0xd8, 0xd7, 0x3d, 0xec, 0x5a, 0xc2, 0x3e, 0x23, 0xf2, 0x51, 0x3e, 0x3f, 0xb2, 0x35, 0xbe, 0xfa, 0x1e, 0x55, 0x3e, 0x52, 0x00, 0x8f, 0xbe, 0x0b, 0x1e, 0xe1, 0xbd, 0x8b, 0xc3, 0xe3, 0xbe, 0xab, 0x78, 0x83, 0x3e, 0xf8, 0x0a, 0x53, 0xbe, 0x6e, 0xcc, 0xcc, 0x3e, 0x02, 0x8e, 0x3e, 0x3e, 0xdf, 0x55, 0xe3, 0xbe, 0xea, 0xcc, 0xbe, 0xbd, 0x7e, 0xe8, 0x7c, 0xbe, 0x5e, 0x08, 0x90, 0xbe, 0xf3, 0xc2, 0xf8, 0xbe, 0x83, 0xad, 0x82, 0x3d, 0xc8, 0x1b, 0x2f, 0xbe, 0xa8, 0x3d, 0x64, 0x3d, 0xea, 0x6c, 0x44, 0x3e, 0xb5, 0xbb, 0xbb, 0x3b, 0x91, 0x83, 0x24, 0xbe, 0x78, 0xe7, 0xa6, 0xbe, 0xab, 0xc4, 0x18, 0x3d, 0xf6, 0x7d, 0x9f, 0x3e, 0x48, 0x6a, 0xa7, 0x3e, 0xcf, 0x95, 0x09, 0xbe, 0xfd, 0xef, 0x96, 0x3e, 0x50, 0x44, 0x1e, 0xbe, 0x13, 0x41, 0xc6, 0x3e, 0x15, 0x57, 0x2e, 0x3e, 0xab, 0x63, 0xd5, 0xbe, 0x70, 0x4e, 0x98, 0xbe, 0xd4, 0xe3, 0xe6, 0x3d, 0xdb, 0x77, 0x3d, 0xbe, 0xdf, 0x9b, 0x13, 0xbe, 0x24, 0x9d, 0x96, 0x3d, 0x82, 0x2d, 0x30, 0xbe, 0xc1, 0x77, 0x1c, 0xbe, 0xca, 0x5d, 0x55, 0x3e, 0x0d, 0x32, 0x96, 0x3e, 0x5c, 0xe4, 0x91, 0x39, 0x5c, 0x3f, 0x8e, 0xbd, 0xa2, 0x4d, 0x23, 0xbe, 0x22, 0x08, 0x46, 0x3d, 0xfe, 0x79, 0x18, 0x3e, 0x91, 0xf1, 0xa0, 0xbe, 0xe4, 0xe6, 0xea, 0x3e, 0xf8, 0xb5, 0xb0, 0xbd, 0x63, 0xcf, 0x1b, 0x3e, 0xad, 0x07, 0xa7, 0x3e, 0x0b, 0xa3, 0x9a, 0x3e, 0x75, 0x06, 0xad, 0x3d, 0x2c, 0x43, 0xc9, 0x3e, 0x37, 0xb7, 0x15, 0xbf, 0x0a, 0x87, 0xac, 0x3d, 0xb4, 0x42, 0x6e, 0xbc, 0xed, 0x40, 0x5b, 0xbe, 0xef, 0xb8, 0xf3, 0xbd, 0x0d, 0xff, 0x0a, 0x3e, 0x1f, 0x54, 0xee, 0x3e, 0x70, 0x2e, 0xbd, 0xbd, 0xcf, 0x00, 0x9e, 0x3d, 0x3e, 0x9b, 0x2f, 0x3d, 0x88, 0x64, 0x1c, 0x3e, 0x03, 0xc1, 0xdb, 0x3d, 0x87, 0x73, 0xd4, 0xbd, 0x47, 0xfc, 0xc6, 0x3d, 0x9b, 0xe6, 0x63, 0xbe, 0x89, 0xa2, 0xc0, 0xbe, 0x68, 0x9a, 0xd7, 0xbe, 0xf4, 0xbc, 0x90, 0xbd, 0xbc, 0x9f, 0x96, 0xbe, 0xe7, 0x54, 0xaa, 0x3e, 0xda, 0xb8, 0x5e, 0x3e, 0x70, 0x50, 0xc0, 0xbe, 0x80, 0xc7, 0xe0, 0xbd, 0xf0, 0x51, 0x34, 0xbe, 0xf4, 0x8d, 0xbc, 0xbe, 0x29, 0x94, 0x32, 0x3d, 0xde, 0x32, 0x92, 0x3e, 0xd2, 0xed, 0xff, 0xff, 0x10, 0x00, 0x00, 0x00, 0x06, 0x00, 0x00, 0x00, 0x14, 0x00, 0x00, 0x00, 0x30, 0x00, 0x00, 0x00, 0x02, 0x00, 0x00, 0x00, 0x0c, 0x00, 0x00, 0x00, 0x20, 0x00, 0x00, 0x00, 0x19, 0x00, 0x00, 0x00, 0x73, 0x65, 0x71, 0x75, 0x65, 0x6e, 0x74, 0x69, 0x61, 0x6c, 0x2f, 0x64, 0x65, 0x6e, 0x73, 0x65, 0x5f, 0x31, 0x2f, 0x4d, 0x61, 0x74, 0x4d, 0x75, 0x6c, 0x00, 0x00, 0x00, 0x54, 0xed, 0xff, 0xff, 0xaa, 0xee, 0xff, 0xff, 0x04, 0x00, 0x00, 0x00, 0x00, 0x10, 0x00, 0x00, 0x11, 0xaf, 0x12, 0xbd, 0x1e, 0xf8, 0x60, 0x3d, 0xcc, 0x87, 0x03, 0xbe, 0xd5, 0x6a, 0x0e, 0x3e, 0xf7, 0x70, 0x09, 0x3e, 0x8e, 0x31, 0x18, 0xbe, 0xed, 0x85, 0xb3, 0xbe, 0xb8, 0x14, 0x3e, 0x3e, 0x17, 0x1e, 0x8d, 0x3d, 0xdd, 0xac, 0x5b, 0x3e, 0xaf, 0xb2, 0x48, 0xbe, 0x1a, 0x86, 0x3e, 0xbc, 0x7d, 0xea, 0xab, 0xbe, 0x19, 0xba, 0x1b, 0x3e, 0xbe, 0x19, 0x2f, 0x3e, 0xb6, 0xe0, 0x7d, 0x3d, 0xf1, 0x0c, 0xad, 0xbe, 0x06, 0x8b, 0xd8, 0xbd, 0x9f, 0xec, 0xe5, 0x3d, 0xf9, 0x83, 0x32, 0x3e, 0xf2, 0xea, 0x90, 0xbe, 0x55, 0x02, 0x9d, 0x3d, 0x89, 0x2e, 0x76, 0xbe, 0x7c, 0xe8, 0x73, 0xbe, 0x91, 0xa6, 0x5b, 0xbd, 0x42, 0xe0, 0x93, 0xbd, 0x6e, 0xd1, 0x0f, 0x3d, 0x34, 0x4c, 0x9b, 0xbe, 0x97, 0x05, 0x63, 0x3d, 0x25, 0xdb, 0x36, 0x3e, 0x61, 0x2d, 0xd3, 0x3c, 0x9c, 0x87, 0x2d, 0xbe, 0xa8, 0xf8, 0x13, 0xbd, 0x10, 0x22, 0x84, 0x3c, 0x92, 0xe4, 0x46, 0xbe, 0xc4, 0xda, 0x7d, 0xbe, 0x08, 0x32, 0x6d, 0xbe, 0x3f, 0xb1, 0x7e, 0xbe, 0xeb, 0x24, 0x65, 0xbe, 0xa0, 0x9c, 0x91, 0xbe, 0x48, 0xc1, 0x2d, 0x3e, 0x64, 0xeb, 0xa2, 0xbd, 0x60, 0x25, 0x19, 0x3d, 0x61, 0xb5, 0x8f, 0x3e, 0x62, 0xd7, 0xba, 0xbd, 0x0e, 0x01, 0x81, 0xbd, 0x80, 0xf5, 0xfb, 0x3d, 0x80, 0x7d, 0xa4, 0x3c, 0x98, 0xd7, 0x18, 0x3e, 0x9e, 0x7d, 0x52, 0x3e, 0x81, 0xe8, 0x64, 0xbe, 0x03, 0xb6, 0x85, 0xbe, 0x7c, 0x29, 0x76, 0xbd, 0x28, 0xce, 0x24, 0x3d, 0xd0, 0xf2, 0xdd, 0xbc, 0xc0, 0x72, 0xe6, 0xbb, 0x18, 0x0b, 0x85, 0xbe, 0x34, 0x42, 0x6e, 0xbd, 0x33, 0x47, 0x94, 0xbe, 0xe4, 0xbc, 0x85, 0xbe, 0x43, 0x9c, 0x32, 0xbe, 0xac, 0xbb, 0x74, 0xbd, 0xc8, 0x27, 0xc1, 0x3d, 0xde, 0x46, 0xa4, 0xbd, 0x7a, 0x81, 0xb8, 0xbd, 0x00, 0x6f, 0x64, 0xbb, 0x5c, 0xe3, 0x66, 0xbe, 0x50, 0xbf, 0x81, 0xbe, 0xb2, 0xa5, 0x64, 0xbe, 0x08, 0xbe, 0x21, 0xbd, 0x0d, 0x1a, 0x86, 0xbe, 0x68, 0x04, 0x1e, 0x3e, 0xec, 0x76, 0xc1, 0x3d, 0x4e, 0xb1, 0x18, 0x3e, 0xd2, 0x76, 0x40, 0xbe, 0x04, 0xd5, 0xe1, 0xbd, 0xb2, 0x07, 0xc8, 0xbd, 0xce, 0x0c, 0x4a, 0xbe, 0x2a, 0xfd, 0x83, 0xbe, 0x38, 0x62, 0x34, 0x3e, 0xfc, 0xc3, 0x67, 0xbe, 0xac, 0x06, 0xec, 0x3d, 0x10, 0xcf, 0xcc, 0xbd, 0x40, 0x1d, 0xd4, 0x3d, 0x60, 0xb7, 0x8e, 0xbc, 0xfe, 0x34, 0xd2, 0xbd, 0x34, 0x18, 0x3e, 0x3e, 0x40, 0xea, 0xcd, 0x3c, 0x18, 0xf3, 0x12, 0xbe, 0xd8, 0x37, 0x29, 0x3d, 0x1a, 0x4b, 0xbd, 0xbd, 0x44, 0xd6, 0x30, 0xbe, 0x8f, 0x0f, 0x96, 0x3e, 0x3d, 0x04, 0x58, 0xbe, 0x86, 0xdd, 0xfd, 0xbd, 0xcd, 0xb5, 0x16, 0xbe, 0xf9, 0x1b, 0xbc, 0x3d, 0xf8, 0xd2, 0x70, 0xbe, 0xc9, 0xf5, 0x08, 0x3d, 0xa5, 0x32, 0x95, 0xbc, 0x46, 0xc2, 0x4c, 0xbe, 0xe1, 0x9a, 0x86, 0xbe, 0xca, 0x12, 0x2f, 0xbe, 0x5d, 0x75, 0xc0, 0xbe, 0xf9, 0x6c, 0x9c, 0x3d, 0xd3, 0x80, 0x4b, 0x3e, 0xb7, 0xaf, 0x8b, 0xbd, 0xc0, 0xb5, 0x83, 0xbe, 0x5d, 0xf1, 0xf0, 0xbd, 0xa3, 0x95, 0xa8, 0x3d, 0x7c, 0xb4, 0xf5, 0x3d, 0xc6, 0xbd, 0x0c, 0x3e, 0x1c, 0x2c, 0x9c, 0x3d, 0xe2, 0xbb, 0x0d, 0x3d, 0x8d, 0x30, 0x43, 0xbe, 0x14, 0x39, 0xfb, 0x3d, 0x67, 0xfb, 0x4f, 0x3e, 0x99, 0x5d, 0x83, 0x3e, 0x58, 0xcf, 0x21, 0x3e, 0x29, 0xb6, 0xfb, 0xbb, 0x43, 0x66, 0xc8, 0x3e, 0x49, 0x2d, 0x2e, 0xbe, 0xc2, 0x73, 0x08, 0x3e, 0x35, 0x3d, 0x35, 0x3e, 0x75, 0x7b, 0xcb, 0xbd, 0x01, 0xc2, 0x6c, 0xbe, 0xdb, 0x7a, 0x27, 0xbe, 0x2f, 0x70, 0x90, 0x3e, 0x72, 0x61, 0x9f, 0xbe, 0xe3, 0x9b, 0xec, 0x3a, 0x03, 0x24, 0x03, 0x3b, 0xc1, 0x14, 0x6d, 0xbe, 0xeb, 0xb3, 0x92, 0x3d, 0xf8, 0x5b, 0xa7, 0x3e, 0xc3, 0x3f, 0x25, 0xbe, 0x1c, 0x31, 0x7d, 0xbe, 0x7c, 0x59, 0xaa, 0x3c, 0x04, 0x4f, 0xbe, 0x3e, 0x3f, 0x0b, 0x36, 0x3e, 0x62, 0x28, 0xc3, 0x3d, 0xdf, 0x32, 0x5e, 0x3e, 0x74, 0xdb, 0x87, 0xbe, 0xfa, 0x4e, 0x19, 0xbe, 0x05, 0x9f, 0x1c, 0xbe, 0x93, 0x51, 0x70, 0x3e, 0x3b, 0xb1, 0x69, 0x3d, 0xe0, 0xcd, 0xb9, 0xbd, 0x36, 0x12, 0x11, 0xbc, 0x78, 0xa6, 0x1b, 0xbe, 0x02, 0x15, 0x8f, 0x3e, 0x5a, 0x35, 0xad, 0x3c, 0x34, 0x42, 0x20, 0x3d, 0xf3, 0x66, 0xb7, 0x3d, 0xac, 0x44, 0x6a, 0xbc, 0x59, 0x69, 0xf1, 0xbd, 0xec, 0x67, 0xa0, 0x3e, 0xd1, 0xb8, 0x9c, 0x3e, 0xe1, 0xd0, 0xaa, 0xbd, 0xc9, 0x5a, 0xca, 0xbe, 0xe3, 0x37, 0x87, 0xbe, 0xd4, 0x12, 0xbc, 0xbc, 0x11, 0x88, 0xf9, 0x3c, 0xa1, 0xf1, 0x9f, 0xbd, 0x62, 0xc4, 0xeb, 0xbd, 0x38, 0x46, 0x17, 0x3d, 0xa4, 0x03, 0x0a, 0x3e, 0x0e, 0x35, 0xa3, 0x3d, 0xdd, 0x58, 0x4f, 0xbe, 0xbb, 0xf4, 0x44, 0xbe, 0xea, 0x60, 0x4d, 0x3a, 0x3b, 0x74, 0x7d, 0x3e, 0x79, 0xd2, 0x1f, 0xbe, 0x0c, 0xa0, 0x98, 0xbe, 0x37, 0xeb, 0xbd, 0x3c, 0x21, 0x49, 0xbc, 0x3c, 0xb4, 0x83, 0x8e, 0x3e, 0x36, 0xdf, 0xe3, 0x3d, 0xc8, 0x1a, 0x46, 0x3e, 0xe4, 0x31, 0x6d, 0x3e, 0x95, 0x16, 0x9f, 0xbc, 0xee, 0x28, 0xfb, 0x3d, 0x88, 0x6c, 0x03, 0x3e, 0xf5, 0x0f, 0x79, 0x3d, 0x5b, 0x5c, 0x81, 0xbd, 0x1d, 0x7d, 0x8d, 0xbe, 0xe3, 0x7e, 0x7d, 0xbe, 0xfb, 0xd0, 0xd5, 0xbe, 0x36, 0x03, 0x21, 0x3e, 0x4a, 0x5f, 0x88, 0xbc, 0xa7, 0x6b, 0x7d, 0xbe, 0x38, 0x68, 0x02, 0x3e, 0xc7, 0x50, 0x03, 0xbd, 0x46, 0x94, 0x34, 0x3e, 0xbf, 0x55, 0x8b, 0xbe, 0xec, 0x7e, 0x46, 0xbe, 0xb2, 0x36, 0xa4, 0x3c, 0x51, 0x60, 0x00, 0x3e, 0xd4, 0x75, 0x0c, 0xbc, 0x4c, 0xe8, 0x13, 0x3c, 0xd4, 0x51, 0x41, 0xbd, 0x52, 0x3b, 0x15, 0x3d, 0x67, 0x1a, 0x09, 0x3e, 0x40, 0xe0, 0x9b, 0x3e, 0xe4, 0x57, 0x85, 0xbe, 0x3c, 0xcc, 0x64, 0xbd, 0xd0, 0x54, 0xe7, 0x3d, 0x8d, 0xda, 0x2c, 0xbd, 0xfe, 0x4b, 0xb8, 0xbd, 0xfb, 0x58, 0x81, 0x3e, 0xf3, 0xd7, 0x46, 0xbd, 0xfc, 0xc7, 0xa2, 0xbd, 0x99, 0x8e, 0x59, 0x3e, 0x94, 0x7b, 0x53, 0x3d, 0x76, 0x01, 0xb0, 0x3d, 0x02, 0x61, 0x1c, 0xbe, 0xdb, 0x00, 0x55, 0x3e, 0xb6, 0x3a, 0x5a, 0x3e, 0x15, 0x18, 0x8b, 0x3d, 0xd0, 0x30, 0xc4, 0x3d, 0x72, 0xe5, 0xe3, 0x3d, 0x79, 0x9e, 0x27, 0xbd, 0xd6, 0x28, 0x1d, 0xbe, 0x5d, 0xe3, 0x37, 0xbe, 0xc7, 0x3a, 0xc1, 0xbe, 0x43, 0xcd, 0x8f, 0x3d, 0x4a, 0x72, 0x33, 0x3e, 0x48, 0x32, 0xaf, 0xbd, 0x08, 0xe7, 0xa6, 0x3d, 0xfb, 0xfa, 0xb3, 0xbd, 0x66, 0x07, 0x6b, 0x3e, 0x36, 0x35, 0x23, 0xbc, 0xed, 0x06, 0x01, 0x3e, 0x93, 0xbe, 0xc0, 0xbe, 0x48, 0x19, 0xcb, 0x3c, 0xca, 0x92, 0x81, 0xbe, 0x01, 0xc4, 0xe5, 0x3c, 0x6a, 0xcf, 0x3b, 0xbd, 0xa1, 0xba, 0x81, 0xbe, 0x53, 0x5e, 0x09, 0x3e, 0xf5, 0xbb, 0x1b, 0x3e, 0x47, 0x45, 0xa0, 0xbe, 0xae, 0xf2, 0x32, 0x3d, 0x44, 0xb7, 0xd5, 0xbe, 0x7c, 0xcb, 0xd0, 0xbd, 0x9d, 0xe6, 0x35, 0xbe, 0x4c, 0x56, 0xf4, 0xbd, 0x95, 0x7d, 0x72, 0xbe, 0x85, 0x46, 0x7e, 0x3c, 0x0d, 0x59, 0x34, 0xbe, 0x32, 0xff, 0x7d, 0xbe, 0x5e, 0x65, 0x7c, 0xbe, 0xbc, 0x19, 0x23, 0xbe, 0xd3, 0x59, 0xee, 0xbc, 0xbe, 0xdd, 0x82, 0xbe, 0x6d, 0xad, 0x00, 0x3e, 0xe3, 0xd8, 0x46, 0xbe, 0xb2, 0xae, 0x36, 0xbe, 0x7c, 0x70, 0x2f, 0xbe, 0x51, 0xc4, 0x30, 0xbd, 0x8b, 0x79, 0x5c, 0xbe, 0x22, 0x86, 0x29, 0x3d, 0xc3, 0xdc, 0x4a, 0xbe, 0x03, 0x35, 0x3b, 0x3e, 0x95, 0xae, 0x4c, 0x3e, 0x11, 0xed, 0x6c, 0x3e, 0x07, 0x44, 0x6f, 0x3d, 0x7b, 0xd9, 0x11, 0xbe, 0xa3, 0x36, 0xa6, 0xbc, 0x34, 0x2d, 0x62, 0xbe, 0xb0, 0x51, 0x6a, 0x3e, 0xb3, 0xeb, 0x77, 0x3d, 0x1b, 0x05, 0x2d, 0xbe, 0x88, 0x07, 0xc8, 0xbc, 0x9f, 0xa4, 0x8a, 0x3e, 0x9e, 0x39, 0x87, 0x3e, 0x76, 0x16, 0x44, 0xbe, 0xd0, 0x7f, 0x9d, 0xbb, 0x5e, 0x61, 0x6a, 0xbd, 0xcc, 0x93, 0x94, 0xbe, 0x1b, 0x80, 0x0a, 0xbd, 0x2b, 0xaf, 0xd3, 0xbd, 0x17, 0x57, 0xe4, 0x3d, 0xf4, 0x86, 0x8a, 0xbe, 0xfe, 0xdf, 0x8c, 0xbe, 0x45, 0xd6, 0x49, 0x3e, 0x94, 0x51, 0x95, 0xbe, 0x5f, 0xc0, 0x77, 0xbd, 0x63, 0x50, 0x80, 0xbe, 0x5d, 0x35, 0x3d, 0xbe, 0xf3, 0x87, 0x1a, 0x3e, 0x78, 0x97, 0x3e, 0xbe, 0xa6, 0xd5, 0x1c, 0xbe, 0x04, 0x82, 0x19, 0xbe, 0x0e, 0xf2, 0x20, 0x3e, 0xdd, 0x2b, 0x96, 0x3e, 0x36, 0x8b, 0x76, 0x3d, 0x10, 0x0a, 0x22, 0xbe, 0x6b, 0xe7, 0x0f, 0xbe, 0x5c, 0x6c, 0xf9, 0xbc, 0x1c, 0x0f, 0x5a, 0xbe, 0x58, 0x7b, 0x34, 0xbd, 0xd0, 0x5e, 0x21, 0xbd, 0x77, 0x75, 0x58, 0x3d, 0x35, 0xa4, 0x4f, 0xbe, 0xde, 0x59, 0x92, 0x3e, 0xe7, 0xf1, 0x88, 0xbe, 0xd7, 0x45, 0x84, 0xbe, 0xea, 0x74, 0x9e, 0xbd, 0x83, 0x6f, 0x64, 0x3e, 0xfa, 0xa4, 0x21, 0x3e, 0x3b, 0xb2, 0x44, 0xbd, 0x66, 0x4a, 0x88, 0x3e, 0xa6, 0xba, 0x57, 0xbe, 0xa6, 0xbc, 0x2e, 0xbe, 0xfb, 0xfa, 0x94, 0x3e, 0xfd, 0x19, 0x41, 0xbe, 0xcc, 0xd4, 0xb5, 0xbd, 0x50, 0xb1, 0x27, 0x3e, 0x1e, 0xa6, 0xc8, 0xbd, 0x6c, 0xf6, 0x5b, 0x3d, 0x16, 0x01, 0x45, 0xbe, 0x9d, 0xe9, 0x3d, 0x3e, 0x4f, 0xe8, 0xe2, 0xbd, 0x89, 0x1c, 0x3d, 0xbd, 0xd1, 0xbb, 0x32, 0x3e, 0x2c, 0xe7, 0x9f, 0xbe, 0x17, 0xc0, 0x07, 0x3e, 0xbb, 0x83, 0x1b, 0xbe, 0x72, 0x70, 0xbe, 0x39, 0xe4, 0x71, 0x18, 0x3e, 0x03, 0x9d, 0x63, 0xbe, 0xa3, 0x41, 0xac, 0xbd, 0x25, 0x9e, 0x15, 0x3e, 0xcc, 0xcb, 0x13, 0x3e, 0x3b, 0x92, 0xab, 0xbe, 0xba, 0xe1, 0x15, 0xbb, 0x7e, 0xf9, 0x20, 0x3e, 0xe6, 0xcc, 0x4a, 0x3e, 0x56, 0x9f, 0x59, 0x3d, 0x46, 0xde, 0x36, 0xbe, 0x98, 0xa6, 0x8d, 0xbe, 0x82, 0x1c, 0x75, 0x3e, 0x55, 0xd0, 0x47, 0x3c, 0x5b, 0x12, 0x08, 0x3e, 0x69, 0x13, 0x1f, 0x3e, 0xef, 0xea, 0x5b, 0xbe, 0x1a, 0xca, 0x58, 0xbd, 0xcc, 0xf9, 0xb3, 0xbe, 0x94, 0x98, 0x37, 0xbe, 0x6d, 0xea, 0xcd, 0x3a, 0x86, 0x53, 0x9c, 0xbd, 0x3c, 0xfe, 0x0b, 0xbe, 0x9f, 0x6f, 0xc0, 0x3d, 0x06, 0xf7, 0xb7, 0xbe, 0x9d, 0x7e, 0x1e, 0x3d, 0x77, 0x8f, 0xae, 0xbe, 0x2b, 0xa8, 0x1e, 0x3e, 0x20, 0xc9, 0xc5, 0x3d, 0x08, 0x01, 0xb9, 0xbc, 0xc3, 0xbe, 0x2f, 0x3e, 0xba, 0xb8, 0x56, 0xbc, 0xc4, 0x30, 0x9a, 0xbe, 0x19, 0xee, 0x07, 0xbd, 0x63, 0x80, 0x65, 0x3e, 0xa0, 0x8e, 0x2a, 0x3e, 0x56, 0x3c, 0x8f, 0xbe, 0x97, 0x04, 0xa7, 0xbd, 0x88, 0x93, 0xb0, 0xbd, 0xd2, 0xc0, 0x17, 0xbe, 0x3a, 0xe8, 0x3d, 0x3e, 0xf2, 0xe1, 0x34, 0xbd, 0xa9, 0x4a, 0x29, 0x3e, 0x57, 0xdf, 0x35, 0xbe, 0x76, 0x76, 0xcb, 0xbd, 0xde, 0x40, 0x86, 0x3e, 0xd7, 0x27, 0x89, 0xbd, 0x4e, 0x8f, 0xcf, 0xbc, 0xcc, 0x3f, 0x76, 0xbe, 0x20, 0xe5, 0x67, 0xbe, 0xc5, 0x85, 0xa4, 0xbe, 0x07, 0xd3, 0x59, 0x3e, 0x34, 0x6d, 0x1f, 0xbe, 0x41, 0xb1, 0x26, 0xbe, 0xf5, 0x9a, 0x21, 0xbe, 0x58, 0xcb, 0x22, 0xbe, 0x48, 0x18, 0x5c, 0x3e, 0x7f, 0xa0, 0x5b, 0x3e, 0x86, 0xe6, 0x4c, 0x3d, 0x6b, 0xea, 0xe4, 0xbb, 0x5c, 0x10, 0x0f, 0xbe, 0x20, 0xe9, 0x17, 0x3e, 0x06, 0x23, 0x6e, 0xbe, 0xba, 0x58, 0xf4, 0xbc, 0x93, 0xf0, 0x9f, 0x3c, 0x8b, 0x8a, 0x0a, 0x3e, 0xb2, 0x1b, 0xbb, 0xbd, 0x9c, 0x67, 0x9b, 0x3d, 0x33, 0xf3, 0x45, 0xbb, 0x58, 0x50, 0xc5, 0x3d, 0x6f, 0x12, 0x30, 0xbe, 0xe4, 0xc4, 0x80, 0xbe, 0xc5, 0xd1, 0x24, 0x3c, 0x76, 0xbc, 0xcc, 0xbe, 0x04, 0xe3, 0x50, 0x3d, 0xcd, 0x20, 0x62, 0xbe, 0x3a, 0x29, 0xaa, 0xbe, 0xa5, 0x38, 0x14, 0xbe, 0x90, 0x6f, 0xdc, 0xbe, 0xbc, 0x47, 0x98, 0x3d, 0xa0, 0x9b, 0x53, 0xbe, 0x87, 0xbb, 0x0a, 0xbf, 0x3b, 0x31, 0x8d, 0xbe, 0x81, 0x95, 0x0d, 0x3d, 0x36, 0xd6, 0xd2, 0xbe, 0xab, 0x74, 0xa9, 0x3d, 0x58, 0xb8, 0x45, 0x3e, 0xbe, 0xfc, 0x03, 0x3e, 0xe0, 0xf0, 0x25, 0x3e, 0x01, 0xf5, 0x39, 0xbe, 0x3f, 0x7d, 0x2c, 0x3e, 0x67, 0x62, 0x32, 0xbd, 0xf9, 0x61, 0xff, 0xbd, 0x53, 0x54, 0x7c, 0x3e, 0xee, 0x8d, 0x89, 0x3c, 0x77, 0xb0, 0xb2, 0xbd, 0xf9, 0x3e, 0x7e, 0xbd, 0x12, 0x20, 0x18, 0xbd, 0x85, 0x7b, 0x8f, 0xbe, 0xe4, 0xa0, 0x7b, 0x3d, 0x9c, 0x80, 0x32, 0x3e, 0x58, 0x32, 0x54, 0xbd, 0x34, 0x5f, 0xc3, 0x3d, 0xf1, 0x49, 0x8a, 0xbe, 0xe9, 0x8b, 0x3c, 0xbe, 0x44, 0xed, 0xa4, 0xbe, 0xc0, 0xb5, 0x20, 0xbe, 0xbf, 0x78, 0xe7, 0x3d, 0xbc, 0xe3, 0xd0, 0x3d, 0xa7, 0x7f, 0x5a, 0xbe, 0xd8, 0x0d, 0xa0, 0xbd, 0x59, 0xb1, 0x95, 0xbe, 0x0a, 0x7f, 0x88, 0xbe, 0xbf, 0x2d, 0xf6, 0x3c, 0xb8, 0xd7, 0x7f, 0xbe, 0x2f, 0x48, 0xa6, 0xbe, 0x39, 0x70, 0xab, 0x3d, 0x3c, 0xda, 0x38, 0xbe, 0xe7, 0xe8, 0x0b, 0x3c, 0x60, 0x34, 0x90, 0xbd, 0xa6, 0x1a, 0x31, 0xbd, 0x86, 0x63, 0x7f, 0xba, 0x34, 0x44, 0xc6, 0xbd, 0x78, 0x93, 0xed, 0xbc, 0xff, 0xc1, 0x2c, 0x3e, 0x9d, 0x6e, 0x04, 0xbe, 0xa5, 0x25, 0xcc, 0x3d, 0xc4, 0x36, 0x9d, 0x3e, 0x74, 0x55, 0x94, 0x3d, 0x8f, 0xdd, 0xb8, 0x3d, 0xe9, 0x61, 0x6d, 0x3b, 0x2d, 0xed, 0x27, 0x3e, 0xa9, 0x5a, 0xc3, 0xbe, 0x47, 0xa6, 0xcf, 0xbd, 0xee, 0xff, 0x43, 0x3d, 0x44, 0xec, 0xd3, 0x3c, 0x98, 0x3e, 0x65, 0xbd, 0xb0, 0x3b, 0xf4, 0x3d, 0xb0, 0x97, 0xab, 0x3d, 0x3f, 0xc3, 0xa6, 0x3d, 0x7a, 0xaa, 0xa3, 0xbe, 0x28, 0x78, 0xda, 0x3d, 0x30, 0x3f, 0x0d, 0xbe, 0xc2, 0x53, 0x87, 0x3e, 0xbc, 0x0d, 0x83, 0xbe, 0xc6, 0xcf, 0x81, 0xbe, 0x64, 0x89, 0xe3, 0xbd, 0x56, 0xaf, 0x73, 0x3e, 0xb1, 0xab, 0x32, 0x3d, 0x25, 0x58, 0x43, 0xbd, 0x1a, 0x1b, 0x52, 0xbe, 0xf0, 0xd3, 0xc5, 0x3d, 0x4b, 0x3f, 0xec, 0xbe, 0xc6, 0x2f, 0xf3, 0x3d, 0x28, 0xdc, 0x82, 0xbd, 0xc1, 0xb9, 0xc9, 0xbe, 0x96, 0x66, 0xf9, 0xbc, 0xcb, 0xc0, 0xd7, 0xbd, 0x42, 0xc0, 0x4f, 0x3b, 0xdb, 0x15, 0x19, 0xbe, 0xc9, 0xc0, 0x1f, 0x3e, 0xb8, 0x54, 0xe4, 0xbd, 0xd9, 0x2f, 0xaa, 0xbe, 0x7f, 0x84, 0xa3, 0x3e, 0x6f, 0x19, 0x55, 0xbe, 0x89, 0xbe, 0x09, 0x3d, 0x78, 0x7c, 0x81, 0x3e, 0x2c, 0x3c, 0x48, 0x3d, 0xc7, 0x2c, 0x16, 0xbe, 0x7f, 0xde, 0x37, 0x3e, 0x06, 0x37, 0x05, 0xbd, 0x90, 0x4c, 0x36, 0x3e, 0xaa, 0x4f, 0x11, 0xbe, 0x8d, 0x9a, 0x3e, 0x3e, 0x48, 0xd1, 0x12, 0x3e, 0x87, 0x22, 0x67, 0x3e, 0x6d, 0x2a, 0x86, 0xbd, 0x17, 0xd5, 0x2a, 0x3d, 0xc9, 0x14, 0xa1, 0x3e, 0xbe, 0x40, 0x35, 0xbe, 0xc6, 0xf7, 0xa3, 0x3d, 0x77, 0x1d, 0x1e, 0xbe, 0xf3, 0x00, 0xa6, 0x3e, 0x0e, 0x09, 0x87, 0xbe, 0xe4, 0x09, 0x5b, 0x3e, 0xbe, 0x85, 0x23, 0xbe, 0xae, 0xfe, 0x62, 0xbe, 0xa4, 0x64, 0x4a, 0x3e, 0x43, 0x8d, 0x80, 0x3e, 0x35, 0xa8, 0x0a, 0x3e, 0x63, 0xd3, 0x80, 0xbd, 0x00, 0xaa, 0x1b, 0x3d, 0x56, 0x1a, 0x25, 0x3d, 0x6d, 0x7d, 0x8b, 0x3e, 0xab, 0xbc, 0x45, 0xbe, 0xf0, 0x90, 0x3a, 0xbe, 0x7e, 0xdd, 0xa5, 0x3d, 0x7a, 0xbc, 0xc1, 0x3d, 0x36, 0x97, 0x53, 0xbe, 0x36, 0x69, 0x2a, 0x3e, 0x51, 0xef, 0x46, 0xbd, 0xca, 0x8a, 0x02, 0x3e, 0xe2, 0x0f, 0xcb, 0x3d, 0xf1, 0xa6, 0x91, 0x3c, 0xa2, 0x6d, 0xad, 0xbe, 0x34, 0xb9, 0x23, 0xbe, 0xee, 0x08, 0x93, 0x3e, 0x28, 0x05, 0xce, 0x3e, 0x64, 0x3f, 0xaf, 0xbe, 0x03, 0xa8, 0xe5, 0x3c, 0x8f, 0x0b, 0x05, 0xbe, 0x01, 0xd7, 0xb6, 0x3e, 0xf9, 0x8a, 0xe4, 0xbd, 0x1f, 0x53, 0xba, 0xbd, 0xc3, 0xcf, 0x26, 0xbd, 0xff, 0xaf, 0x2e, 0x3d, 0xf9, 0xf0, 0x44, 0xbd, 0x45, 0xa1, 0x7b, 0x3d, 0xb6, 0xcc, 0x4b, 0x3d, 0xa2, 0xa4, 0x50, 0x3d, 0x92, 0x38, 0xff, 0xbe, 0x0b, 0x8e, 0x9a, 0xbe, 0xf3, 0x6b, 0x1a, 0x3e, 0xaa, 0x83, 0xbf, 0x3d, 0xf7, 0x33, 0x8e, 0xbd, 0xf6, 0xc6, 0x4f, 0x3d, 0x1a, 0x6a, 0x15, 0xbe, 0x01, 0xfa, 0x82, 0x3e, 0x1b, 0x0d, 0x04, 0x3e, 0x80, 0x01, 0xe6, 0xbd, 0x9a, 0x6f, 0x36, 0xbe, 0x1e, 0xa8, 0x9f, 0xbe, 0xc4, 0x98, 0x0d, 0xbe, 0x90, 0xd7, 0xdc, 0xbe, 0x37, 0x52, 0x0c, 0xbe, 0x36, 0x45, 0x34, 0x3e, 0x1c, 0x7d, 0x4c, 0x3d, 0x9e, 0x6b, 0x08, 0x3e, 0x7f, 0x1d, 0x5d, 0x3e, 0x25, 0x22, 0xab, 0xbd, 0x7b, 0xf5, 0xcf, 0x3d, 0x46, 0xb9, 0x0f, 0x3e, 0xf4, 0x38, 0x95, 0x3e, 0x64, 0x01, 0x13, 0xbe, 0x8c, 0xe9, 0x50, 0x3d, 0xa9, 0x0c, 0x7a, 0xbd, 0x15, 0x9a, 0xe8, 0xbd, 0x0c, 0x63, 0x2e, 0xbd, 0xcf, 0x91, 0x87, 0xbd, 0xa5, 0x8d, 0xc2, 0x3d, 0x6d, 0x44, 0x2a, 0x3e, 0xed, 0x93, 0x40, 0xbe, 0x09, 0x0c, 0xaf, 0xbe, 0x08, 0xac, 0xf6, 0x3d, 0x99, 0x1b, 0xbc, 0xbe, 0x99, 0xe4, 0x87, 0x3b, 0x82, 0x47, 0xa4, 0xbc, 0x7f, 0x26, 0x1a, 0xbe, 0xbe, 0xba, 0xa5, 0xbe, 0xcd, 0x57, 0x2e, 0x3d, 0x92, 0xd7, 0x97, 0xbe, 0xba, 0x98, 0xa6, 0xbd, 0x76, 0x81, 0x10, 0xbe, 0x68, 0xbe, 0x46, 0x3d, 0x2d, 0xe3, 0x59, 0x3d, 0x27, 0x89, 0x59, 0x3e, 0x33, 0x3f, 0x93, 0x3d, 0x67, 0xc8, 0x52, 0xbe, 0xba, 0xca, 0x02, 0x3e, 0xa7, 0x6d, 0x17, 0xbe, 0x55, 0x28, 0xa1, 0x3d, 0xb2, 0x83, 0x1d, 0x3e, 0x17, 0x85, 0x08, 0xbc, 0x61, 0x97, 0xd8, 0x3c, 0xf4, 0xf5, 0x1f, 0xbe, 0xbc, 0x5a, 0x4c, 0x3e, 0xac, 0x8c, 0xcb, 0xbd, 0xa4, 0xd1, 0x20, 0x3e, 0x11, 0xc2, 0x15, 0xbd, 0x8a, 0x4f, 0x43, 0xbe, 0x4b, 0x8d, 0xe4, 0xbc, 0x67, 0x32, 0x6c, 0xbe, 0xc3, 0x22, 0x26, 0x3e, 0x09, 0xcb, 0x59, 0x3e, 0x10, 0xc4, 0x86, 0xbd, 0x1d, 0x09, 0x1e, 0xbe, 0xd2, 0x63, 0x27, 0x3e, 0xfc, 0x4f, 0x5c, 0xbe, 0x47, 0x34, 0x36, 0xbe, 0x62, 0xa9, 0x7d, 0x3e, 0xdb, 0xee, 0x89, 0x3d, 0x19, 0xf8, 0x81, 0xbe, 0x03, 0x48, 0xcc, 0x3b, 0xc8, 0x0a, 0x6d, 0xbe, 0x47, 0x8b, 0x03, 0x3e, 0x99, 0x40, 0x21, 0x3e, 0xce, 0x8b, 0x74, 0xbe, 0xde, 0xe8, 0x2d, 0xbe, 0xe8, 0x14, 0xf3, 0xbd, 0x4e, 0xe5, 0xc9, 0x3c, 0xe3, 0x79, 0xc4, 0x3d, 0xf9, 0x48, 0x62, 0xbe, 0xe6, 0x8e, 0x06, 0x3e, 0x89, 0x8d, 0x6d, 0xbe, 0xbd, 0xda, 0x5b, 0x3e, 0x1c, 0xda, 0x94, 0xbc, 0xd3, 0x79, 0x76, 0x3e, 0xac, 0x5c, 0x8e, 0x3e, 0x53, 0x76, 0xe0, 0xbd, 0xd0, 0x54, 0x9f, 0xbe, 0x8a, 0xdd, 0x34, 0xbe, 0x5a, 0x24, 0x17, 0xbd, 0xbb, 0x96, 0x4d, 0x3d, 0xc5, 0xa6, 0x88, 0xbe, 0x07, 0xb2, 0x86, 0xbc, 0x07, 0xb7, 0x4b, 0x3e, 0x08, 0xcf, 0x0f, 0xbb, 0x32, 0x40, 0x10, 0xbe, 0xcf, 0xcb, 0xdb, 0x3b, 0x2a, 0xf8, 0x59, 0xbd, 0x70, 0x56, 0xab, 0xbe, 0x6a, 0x94, 0x1a, 0x3e, 0xdb, 0xb6, 0x8c, 0xbe, 0x63, 0x0c, 0x5b, 0x3e, 0x14, 0xcc, 0x3b, 0xbd, 0x0c, 0xa7, 0xb1, 0x3d, 0x5f, 0xf9, 0x87, 0xbd, 0x06, 0xb9, 0x03, 0x3e, 0x53, 0x0a, 0xd9, 0x3d, 0xda, 0x88, 0x2f, 0x3e, 0x97, 0xcd, 0xae, 0x3d, 0xf9, 0x19, 0x64, 0xbe, 0xbe, 0xe2, 0x07, 0xbd, 0xfb, 0x71, 0x4e, 0x3e, 0xc8, 0x98, 0xe3, 0xbd, 0x27, 0x69, 0xe4, 0xbe, 0x63, 0xaf, 0x37, 0xbe, 0x02, 0x35, 0x6e, 0x3c, 0xcd, 0xe2, 0x50, 0x3e, 0x56, 0xa2, 0xa1, 0xbe, 0xcc, 0xff, 0xb6, 0x3d, 0x5c, 0x2c, 0x9e, 0x3d, 0xa5, 0x2a, 0x74, 0xbe, 0xeb, 0x05, 0xc1, 0xbd, 0x7a, 0x5b, 0x9c, 0x3d, 0x34, 0x5d, 0x3a, 0xbe, 0x8b, 0xcc, 0xc4, 0x3d, 0xc6, 0x61, 0x60, 0x3e, 0xb3, 0x71, 0x60, 0xbe, 0x2a, 0x45, 0x92, 0x3e, 0x5f, 0x7e, 0x06, 0xbe, 0xc9, 0x60, 0xc2, 0x3d, 0xa7, 0xed, 0xff, 0xbc, 0xdf, 0x84, 0x1b, 0x3e, 0x9d, 0x02, 0x6d, 0xbe, 0x76, 0x57, 0x93, 0xbe, 0x8a, 0x43, 0x99, 0x3d, 0x66, 0x4f, 0xa8, 0xbe, 0xa8, 0x74, 0x37, 0x3e, 0x6a, 0xe6, 0xee, 0xbd, 0xd0, 0x00, 0x00, 0x3d, 0x82, 0xeb, 0xf7, 0x3d, 0x99, 0xe2, 0xac, 0x3e, 0xdf, 0x25, 0xae, 0x3e, 0x92, 0x8c, 0xee, 0x3d, 0x9c, 0xfb, 0x61, 0xbe, 0x1b, 0x1e, 0xea, 0xbd, 0x1c, 0x63, 0xc9, 0xbe, 0x25, 0xda, 0x77, 0xbd, 0x10, 0x76, 0x3b, 0xbe, 0xb4, 0xc9, 0xa2, 0xbd, 0xc7, 0x02, 0x2a, 0xbd, 0x9f, 0xce, 0x3b, 0x3d, 0x6b, 0x51, 0x01, 0x3e, 0x20, 0x46, 0x34, 0xbe, 0x6a, 0x15, 0x76, 0xbe, 0x7c, 0x64, 0xdd, 0xbd, 0x18, 0xe5, 0x92, 0xbe, 0xce, 0x14, 0xb7, 0xbd, 0x32, 0x87, 0x4b, 0x3e, 0x92, 0xee, 0xec, 0xbd, 0xea, 0x75, 0x7f, 0xbe, 0xc0, 0xd6, 0x60, 0xbc, 0x25, 0xb3, 0x3d, 0xbe, 0xa2, 0xf9, 0x02, 0xbe, 0x00, 0x6e, 0xcf, 0x3b, 0xc2, 0x43, 0x86, 0xbe, 0xae, 0x4e, 0x2c, 0xbe, 0xb3, 0xb6, 0x83, 0x3e, 0xc2, 0x02, 0x09, 0x3e, 0x9b, 0x88, 0x41, 0xbe, 0x14, 0x10, 0x42, 0x3e, 0x67, 0x78, 0x04, 0xbe, 0x7a, 0xf2, 0xe8, 0xbd, 0x40, 0xd4, 0xa1, 0x3c, 0x82, 0xe0, 0x89, 0xbe, 0xfc, 0x8c, 0x89, 0x3d, 0x50, 0xb9, 0xcb, 0xbd, 0x04, 0x54, 0x3f, 0x3e, 0x00, 0x32, 0xf9, 0x3b, 0xd2, 0x77, 0x8b, 0xbe, 0x10, 0x6a, 0x51, 0x3d, 0x06, 0x81, 0x39, 0x3e, 0x86, 0x50, 0x4b, 0x3e, 0x00, 0x57, 0x77, 0xbc, 0xa6, 0xae, 0xb5, 0xbd, 0x68, 0xf7, 0x1e, 0x3e, 0x7d, 0x8a, 0x40, 0xbb, 0x4a, 0x07, 0x2b, 0x3e, 0xb6, 0x5a, 0x2b, 0x3e, 0xd3, 0xaa, 0xfa, 0xbc, 0x92, 0xf9, 0x91, 0xbe, 0xca, 0x0a, 0x35, 0x3c, 0x92, 0x90, 0x82, 0x3e, 0xd8, 0x55, 0x61, 0x3e, 0xbe, 0xd8, 0x08, 0xbe, 0x50, 0x26, 0x8f, 0x3e, 0x5b, 0x60, 0x01, 0xbe, 0x8c, 0xfc, 0xc5, 0xbe, 0x9f, 0x6b, 0x64, 0xbe, 0x1f, 0x7f, 0x8d, 0xbe, 0xe0, 0x72, 0x9a, 0xbe, 0xc9, 0x52, 0x41, 0xbe, 0xcf, 0xd4, 0xa7, 0x3a, 0xa9, 0xae, 0xa7, 0xbc, 0x32, 0x2b, 0xa8, 0xbe, 0xb2, 0xc7, 0xdb, 0xbe, 0x7c, 0x18, 0x81, 0xbe, 0xc9, 0x95, 0x39, 0xbe, 0x5f, 0xca, 0xdf, 0xbe, 0x07, 0xd7, 0xa4, 0x3d, 0x9b, 0x56, 0x93, 0xbd, 0xcc, 0x41, 0x0b, 0xbe, 0x60, 0xd6, 0x92, 0x3d, 0x05, 0xca, 0x2f, 0xbe, 0xa1, 0xc5, 0x9b, 0x3d, 0x47, 0x0e, 0xb0, 0xbe, 0xca, 0x2b, 0x87, 0xbe, 0xd5, 0x13, 0xdb, 0x3d, 0xe4, 0xee, 0xd2, 0x3d, 0x09, 0x8e, 0x85, 0xbe, 0x64, 0x8a, 0xfe, 0xbd, 0x03, 0xbc, 0xcf, 0xbe, 0x69, 0xae, 0x94, 0x3e, 0x4f, 0x94, 0x83, 0x3e, 0x89, 0xde, 0x9d, 0xbe, 0x18, 0xc5, 0x55, 0x3e, 0xb9, 0x72, 0x6d, 0x3d, 0x1e, 0xd9, 0x42, 0x3d, 0xbd, 0x29, 0x83, 0x3e, 0xd6, 0xee, 0x9c, 0x3e, 0xcb, 0x4e, 0x4f, 0xbe, 0x2c, 0x6b, 0xa1, 0xbe, 0xe7, 0xa8, 0x3f, 0xbd, 0xa1, 0xb6, 0xe2, 0x3c, 0x0c, 0x3a, 0xa7, 0x3d, 0x5a, 0x49, 0xcf, 0xba, 0x1d, 0x10, 0x5d, 0xbe, 0xcf, 0x0f, 0xc6, 0x3e, 0x18, 0x69, 0x97, 0xbe, 0x12, 0x8d, 0xe0, 0xba, 0x9c, 0xd1, 0x18, 0xbe, 0x20, 0xb4, 0x93, 0x3e, 0x24, 0xd5, 0x24, 0x3e, 0xed, 0x7f, 0xb1, 0xbd, 0x5f, 0xea, 0xf4, 0x3d, 0x53, 0x31, 0x29, 0xbc, 0x0a, 0x85, 0x90, 0x3e, 0x2b, 0x8f, 0x09, 0xbe, 0xff, 0x3d, 0xa5, 0xbc, 0x59, 0xa0, 0x2d, 0xbe, 0xa0, 0x7c, 0xcc, 0xbd, 0xca, 0x5b, 0x3f, 0xbe, 0xe0, 0x24, 0x4e, 0x3d, 0x96, 0x06, 0x61, 0xbe, 0x2e, 0x16, 0x55, 0x3e, 0x12, 0x9f, 0x9a, 0xbd, 0xf5, 0x71, 0x57, 0xbe, 0x38, 0xcd, 0x53, 0xbe, 0x58, 0x93, 0x7e, 0x3d, 0x60, 0xa4, 0x95, 0x3d, 0x79, 0x4c, 0x2d, 0xbe, 0xde, 0x87, 0x0a, 0xbe, 0xf8, 0xb7, 0x41, 0x3e, 0x37, 0x7b, 0x1f, 0xbe, 0x42, 0x72, 0x80, 0xbd, 0x60, 0xce, 0x97, 0xbc, 0xb2, 0x07, 0x18, 0x3e, 0xc0, 0xc6, 0x89, 0xbe, 0x2f, 0x6f, 0x91, 0xbe, 0xa0, 0x91, 0xc7, 0xbc, 0x26, 0x8b, 0x54, 0xbe, 0x52, 0xf7, 0x55, 0x3e, 0x09, 0x71, 0x68, 0xbe, 0xd2, 0xf4, 0x33, 0x3e, 0xb8, 0xb5, 0x6e, 0xbd, 0x30, 0xf2, 0x3b, 0x3d, 0x40, 0x2c, 0x6b, 0xbe, 0x10, 0xc8, 0x3e, 0x3d, 0x68, 0xcc, 0x2a, 0xbe, 0xa0, 0xee, 0xc4, 0xbc, 0x5b, 0xb1, 0x83, 0x3e, 0x16, 0x1a, 0x1a, 0xbe, 0xdb, 0x90, 0xe1, 0xbc, 0x94, 0x1f, 0x60, 0x3e, 0xce, 0x60, 0x95, 0xbd, 0xb2, 0x0e, 0xa0, 0xbe, 0x38, 0x86, 0x28, 0xbe, 0x14, 0x3f, 0xa9, 0xbe, 0x7c, 0xc0, 0xbe, 0x3d, 0x18, 0xc9, 0x03, 0xbd, 0xae, 0xbd, 0x82, 0x3d, 0x83, 0x36, 0x9d, 0x3d, 0xe3, 0x46, 0x7f, 0xbe, 0xc3, 0xb4, 0x67, 0x3e, 0x91, 0x3c, 0x2d, 0xbe, 0xb1, 0xcd, 0x8c, 0x3e, 0x6b, 0xfb, 0xac, 0x3d, 0x62, 0x30, 0xc7, 0x3d, 0x70, 0x94, 0x24, 0x3e, 0xf4, 0x37, 0x5c, 0x3d, 0x52, 0xa0, 0xc1, 0x3e, 0xe6, 0x44, 0x9c, 0xbd, 0x87, 0xab, 0x1c, 0xbe, 0x48, 0x84, 0x34, 0xbd, 0x5f, 0x57, 0xc7, 0xbc, 0xfb, 0x61, 0xa6, 0xbe, 0xb6, 0x4f, 0xa2, 0xbc, 0xfe, 0x49, 0x2e, 0x3e, 0x94, 0x1f, 0xc8, 0x3d, 0x36, 0xd0, 0x91, 0xbe, 0x22, 0x13, 0xeb, 0xbe, 0x3b, 0x3c, 0xc4, 0xbd, 0xbe, 0x57, 0x6e, 0x3e, 0x4e, 0x5f, 0x3f, 0x3e, 0xf3, 0xe6, 0x2d, 0xbe, 0xf9, 0x78, 0xe5, 0xbd, 0x9a, 0xd5, 0x0d, 0x3d, 0xae, 0xd2, 0xb4, 0x3d, 0x9d, 0xb9, 0x5d, 0xbe, 0x6d, 0x76, 0x97, 0xbe, 0x48, 0x8d, 0x8c, 0x3e, 0x68, 0x01, 0xa5, 0xbd, 0x3e, 0x07, 0x28, 0x3e, 0xb8, 0x73, 0x3d, 0x3e, 0x43, 0x73, 0xb3, 0xbe, 0x32, 0xc3, 0xa2, 0x3d, 0x27, 0x2f, 0xbd, 0xbd, 0xe2, 0x85, 0x4d, 0xbe, 0xd2, 0xd6, 0xc3, 0x3a, 0xb0, 0x3e, 0x90, 0xbe, 0x6e, 0x39, 0xae, 0xbe, 0x70, 0xef, 0x98, 0x3e, 0x27, 0x1f, 0x9e, 0x3d, 0x0c, 0x09, 0x84, 0xbe, 0xf5, 0x56, 0x65, 0xbe, 0xfa, 0xd1, 0xb9, 0x3e, 0xfe, 0xa0, 0x64, 0x3e, 0x14, 0xd4, 0x18, 0xbe, 0x27, 0xba, 0xe1, 0xbc, 0xa3, 0xdc, 0xc0, 0x3d, 0xcb, 0x8b, 0x6a, 0xbe, 0x85, 0x85, 0x84, 0x3e, 0x6e, 0x36, 0x8a, 0xbe, 0x13, 0xe2, 0xf4, 0x3d, 0x39, 0xee, 0x39, 0x3d, 0x7f, 0x6d, 0x8f, 0x3d, 0xf5, 0x57, 0xd5, 0x3c, 0x78, 0xbd, 0x2b, 0xbe, 0xde, 0x5c, 0xce, 0xbd, 0x18, 0x59, 0xfd, 0x3d, 0x3f, 0x04, 0xf7, 0x3d, 0x70, 0x3c, 0x0a, 0xbd, 0x56, 0x95, 0x36, 0xbd, 0x53, 0x03, 0x7e, 0xbe, 0x51, 0xff, 0x3d, 0x3e, 0x4f, 0x4d, 0x20, 0x3e, 0x76, 0x8a, 0xf0, 0x3d, 0x0e, 0x0d, 0x65, 0xbd, 0xfa, 0x30, 0x7e, 0x3d, 0x25, 0x59, 0x9f, 0xbe, 0xdd, 0x18, 0x13, 0xbe, 0x49, 0xd2, 0x55, 0xbe, 0x57, 0xe1, 0x16, 0xbe, 0xc4, 0xcf, 0x40, 0xbe, 0x33, 0x39, 0x31, 0xbd, 0xb5, 0x72, 0x83, 0x3d, 0xe9, 0xe4, 0x69, 0x3e, 0x48, 0xec, 0x47, 0xbe, 0x5c, 0x73, 0x4d, 0xbe, 0xfd, 0x2e, 0xb1, 0xbe, 0x0a, 0x32, 0x0d, 0x3e, 0x65, 0xc7, 0xb9, 0x3b, 0x8e, 0x1d, 0x18, 0xbe, 0x53, 0xd3, 0x21, 0x3d, 0xce, 0x1a, 0x69, 0xbd, 0x2f, 0xd8, 0x22, 0xbe, 0x37, 0x8a, 0xc4, 0xbd, 0xcd, 0x4c, 0x35, 0xbe, 0xe8, 0xef, 0x14, 0xbd, 0x70, 0xd8, 0xe7, 0xbd, 0x56, 0x1f, 0x8e, 0xbe, 0x7d, 0x82, 0x1d, 0xbe, 0x54, 0x53, 0x20, 0x3e, 0xa8, 0x03, 0x49, 0xbd, 0xa6, 0x1b, 0x97, 0xbd, 0xe0, 0x08, 0x6d, 0x3c, 0x38, 0xeb, 0xb7, 0x3d, 0xc0, 0x8f, 0x9b, 0xbe, 0xe0, 0x24, 0xf8, 0xbd, 0x2f, 0x9a, 0x90, 0xbe, 0x87, 0xb9, 0x08, 0xbe, 0xe1, 0xa6, 0x58, 0xbe, 0x9a, 0x57, 0xde, 0xbd, 0xf6, 0x3e, 0x92, 0xbd, 0xac, 0xb7, 0x5b, 0xbe, 0x8c, 0xfd, 0x11, 0x3e, 0xd7, 0x6c, 0x9c, 0x3e, 0x52, 0x59, 0x95, 0xbe, 0x00, 0x3a, 0x18, 0xbd, 0xd2, 0x61, 0x4f, 0x3e, 0x6a, 0xc1, 0xa3, 0xbd, 0xd1, 0x44, 0x96, 0xbe, 0x9b, 0xcd, 0x48, 0xbe, 0xe0, 0x3f, 0x87, 0xbc, 0x40, 0xf8, 0xe1, 0x3c, 0x20, 0xcc, 0x05, 0xbc, 0x78, 0x2d, 0x46, 0x3e, 0x00, 0x71, 0x88, 0xbd, 0x58, 0x58, 0x43, 0xbe, 0x86, 0x7f, 0x40, 0x3e, 0xe5, 0xa0, 0xdf, 0x3d, 0x6c, 0x1c, 0x3d, 0x3e, 0x5f, 0xa8, 0x79, 0xbd, 0x87, 0x9e, 0x16, 0x3e, 0x73, 0xa8, 0x85, 0xbe, 0x93, 0x9b, 0x86, 0x3e, 0x4d, 0xfb, 0x9d, 0x3b, 0xe9, 0x04, 0xbb, 0x3d, 0x86, 0xaa, 0x0e, 0xbd, 0x41, 0x42, 0xff, 0x3d, 0xa7, 0xf9, 0x99, 0xbe, 0x42, 0x7d, 0x84, 0xbe, 0xb9, 0xe5, 0xeb, 0xbc, 0xc4, 0x7d, 0x9e, 0xbd, 0x7f, 0x45, 0xc6, 0x3d, 0x2a, 0x2d, 0x0f, 0x3e, 0x1c, 0x73, 0x73, 0xbe, 0x7c, 0x0e, 0x52, 0xbb, 0xa6, 0xc6, 0x54, 0xbe, 0x67, 0x91, 0xbb, 0xbd, 0x11, 0x97, 0x2f, 0xbe, 0xbc, 0xb5, 0x51, 0x3d, 0x03, 0x49, 0x9b, 0xbe, 0x7b, 0x50, 0xb3, 0xbe, 0x23, 0x6c, 0xa4, 0xbe, 0x4d, 0xdf, 0xfb, 0xbe, 0x24, 0xd6, 0x31, 0xbe, 0xdd, 0x1a, 0x9a, 0x3d, 0x7f, 0xc2, 0x85, 0xbe, 0x6d, 0x72, 0xe7, 0xbe, 0x8f, 0x63, 0x1f, 0x3e, 0xa7, 0x2f, 0x89, 0xbe, 0xdc, 0xff, 0x74, 0xbe, 0xf6, 0xec, 0x67, 0x3d, 0x27, 0x9a, 0xc5, 0x3d, 0x14, 0xe7, 0x9a, 0xbd, 0xcd, 0x40, 0x3e, 0x3e, 0x64, 0xd5, 0x3e, 0xbe, 0x61, 0x39, 0x65, 0xbe, 0x71, 0xf7, 0xe7, 0x3d, 0xd0, 0x7f, 0xda, 0xbd, 0xa0, 0xd0, 0x92, 0xbd, 0x7b, 0x08, 0x79, 0x3d, 0xed, 0xef, 0x87, 0xbd, 0x54, 0xc3, 0x93, 0xbe, 0x2d, 0x2d, 0x18, 0x3e, 0xcd, 0x20, 0x63, 0x3e, 0xda, 0x3b, 0xb1, 0x3d, 0x65, 0xce, 0x33, 0xbe, 0x49, 0xe3, 0x12, 0xbe, 0x93, 0xd5, 0x43, 0xbe, 0xb6, 0x3a, 0x94, 0xba, 0x63, 0x0c, 0x74, 0x3e, 0xf4, 0x49, 0x66, 0x3e, 0xf0, 0x11, 0x6d, 0xbe, 0x64, 0xf5, 0x82, 0xbe, 0x90, 0xe4, 0xce, 0xbd, 0xee, 0xc9, 0xff, 0xbd, 0xee, 0x27, 0x64, 0xbe, 0xb9, 0xe0, 0x62, 0xbd, 0x2e, 0x6f, 0x8f, 0xbe, 0x97, 0xfb, 0xe3, 0xbc, 0xda, 0xd0, 0x86, 0xbd, 0xcf, 0xf6, 0x9c, 0xbe, 0x22, 0xfe, 0xff, 0xff, 0x10, 0x00, 0x00, 0x00, 0x05, 0x00, 0x00, 0x00, 0x14, 0x00, 0x00, 0x00, 0x2c, 0x00, 0x00, 0x00, 0x02, 0x00, 0x00, 0x00, 0x20, 0x00, 0x00, 0x00, 0x20, 0x00, 0x00, 0x00, 0x17, 0x00, 0x00, 0x00, 0x73, 0x65, 0x71, 0x75, 0x65, 0x6e, 0x74, 0x69, 0x61, 0x6c, 0x2f, 0x64, 0x65, 0x6e, 0x73, 0x65, 0x2f, 0x4d, 0x61, 0x74, 0x4d, 0x75, 0x6c, 0x00, 0xa0, 0xfd, 0xff, 0xff, 0xf6, 0xfe, 0xff, 0xff, 0x04, 0x00, 0x00, 0x00, 0x0c, 0x00, 0x00, 0x00, 0x80, 0x05, 0x3e, 0xbe, 0x58, 0x5a, 0xbe, 0x3f, 0x2e, 0xd8, 0xdc, 0xbf, 0x7a, 0xfe, 0xff, 0xff, 0x10, 0x00, 0x00, 0x00, 0x04, 0x00, 0x00, 0x00, 0x10, 0x00, 0x00, 0x00, 0x44, 0x00, 0x00, 0x00, 0x01, 0x00, 0x00, 0x00, 0x03, 0x00, 0x00, 0x00, 0x32, 0x00, 0x00, 0x00, 0x73, 0x65, 0x71, 0x75, 0x65, 0x6e, 0x74, 0x69, 0x61, 0x6c, 0x2f, 0x64, 0x65, 0x6e, 0x73, 0x65, 0x5f, 0x32, 0x2f, 0x42, 0x69, 0x61, 0x73, 0x41, 0x64, 0x64, 0x2f, 0x52, 0x65, 0x61, 0x64, 0x56, 0x61, 0x72, 0x69, 0x61, 0x62, 0x6c, 0x65, 0x4f, 0x70, 0x2f, 0x72, 0x65, 0x73, 0x6f, 0x75, 0x72, 0x63, 0x65, 0x00, 0x00, 0x10, 0xfe, 0xff, 0xff, 0x66, 0xff, 0xff, 0xff, 0x04, 0x00, 0x00, 0x00, 0x30, 0x00, 0x00, 0x00, 0x8f, 0xe8, 0x26, 0x3d, 0x7e, 0x23, 0x51, 0xbf, 0xbd, 0x0c, 0x2d, 0xbe, 0x0b, 0xfe, 0x05, 0x3c, 0x38, 0x07, 0x30, 0x3d, 0x87, 0x02, 0x3e, 0xbe, 0xa3, 0x96, 0x1e, 0x3f, 0x9a, 0x86, 0x91, 0x3c, 0xb0, 0xb9, 0x57, 0x3f, 0x15, 0x5f, 0x53, 0x3f, 0xb9, 0xc6, 0x2d, 0x3d, 0xa4, 0xb1, 0x80, 0xbf, 0x0e, 0xff, 0xff, 0xff, 0x10, 0x00, 0x00, 0x00, 0x03, 0x00, 0x00, 0x00, 0x10, 0x00, 0x00, 0x00, 0x48, 0x00, 0x00, 0x00, 0x01, 0x00, 0x00, 0x00, 0x0c, 0x00, 0x00, 0x00, 0x32, 0x00, 0x00, 0x00, 0x73, 0x65, 0x71, 0x75, 0x65, 0x6e, 0x74, 0x69, 0x61, 0x6c, 0x2f, 0x64, 0x65, 0x6e, 0x73, 0x65, 0x5f, 0x31, 0x2f, 0x42, 0x69, 0x61, 0x73, 0x41, 0x64, 0x64, 0x2f, 0x52, 0x65, 0x61, 0x64, 0x56, 0x61, 0x72, 0x69, 0x61, 0x62, 0x6c, 0x65, 0x4f, 0x70, 0x2f, 0x72, 0x65, 0x73, 0x6f, 0x75, 0x72, 0x63, 0x65, 0x00, 0x00, 0x04, 0x00, 0x06, 0x00, 0x04, 0x00, 0x00, 0x00, 0x00, 0x00, 0x06, 0x00, 0x08, 0x00, 0x04, 0x00, 0x06, 0x00, 0x00, 0x00, 0x04, 0x00, 0x00, 0x00, 0x80, 0x00, 0x00, 0x00, 0x3c, 0x1e, 0x10, 0xbe, 0x00, 0x00, 0x00, 0x00, 0x00, 0x00, 0x00, 0x00, 0xe8, 0x0e, 0xf0, 0xbe, 0x4d, 0x24, 0xdc, 0xbe, 0x2a, 0xe5, 0x60, 0xbe, 0xaa, 0x21, 0xee, 0xbe, 0x05, 0x8a, 0xb3, 0x3e, 0x0c, 0x58, 0x2e, 0xbc, 0x4f, 0x27, 0xc4, 0xbc, 0x4e, 0xb2, 0xb4, 0xbd, 0x01, 0x64, 0x15, 0xbe, 0x71, 0xd2, 0x63, 0x3d, 0x62, 0x94, 0xd3, 0x3e, 0x20, 0x03, 0x2a, 0xbf, 0xb8, 0x1c, 0x86, 0xbe, 0x3a, 0xbd, 0xa4, 0xbe, 0xfe, 0x3c, 0x05, 0xbf, 0x2e, 0xac, 0x15, 0xbe, 0x29, 0x8b, 0xd8, 0xbb, 0x68, 0xe2, 0x87, 0xbe, 0x2d, 0x93, 0xa2, 0x3c, 0x00, 0x00, 0x00, 0x00, 0xc0, 0xcf, 0x1b, 0x3e, 0x0b, 0xb0, 0x7b, 0xbf, 0x00, 0x00, 0x00, 0x00, 0x8d, 0x43, 0x90, 0x3e, 0xa1, 0xdd, 0xdc, 0x3d, 0x9b, 0x7c, 0xa0, 0xbd, 0x00, 0x00, 0x00, 0x00, 0x15, 0x04, 0xce, 0x3e, 0x06, 0x43, 0xb2, 0xbd, 0x00, 0x00, 0x0e, 0x00, 0x14, 0x00, 0x04, 0x00, 0x00, 0x00, 0x08, 0x00, 0x0c, 0x00, 0x10, 0x00, 0x0e, 0x00, 0x00, 0x00, 0x10, 0x00, 0x00, 0x00, 0x02, 0x00, 0x00, 0x00, 0x10, 0x00, 0x00, 0x00, 0x44, 0x00, 0x00, 0x00, 0x01, 0x00, 0x00, 0x00, 0x20, 0x00, 0x00, 0x00, 0x30, 0x00, 0x00, 0x00, 0x73, 0x65, 0x71, 0x75, 0x65, 0x6e, 0x74, 0x69, 0x61, 0x6c, 0x2f, 0x64, 0x65, 0x6e, 0x73, 0x65, 0x2f, 0x42, 0x69, 0x61, 0x73, 0x41, 0x64, 0x64, 0x2f, 0x52, 0x65, 0x61, 0x64, 0x56, 0x61, 0x72, 0x69, 0x61, 0x62, 0x6c, 0x65, 0x4f, 0x70, 0x2f, 0x72, 0x65, 0x73, 0x6f, 0x75, 0x72, 0x63, 0x65, 0x00, 0x00, 0x00, 0x00, 0xa4, 0xff, 0xff, 0xff, 0x14, 0x00, 0x18, 0x00, 0x04, 0x00, 0x00, 0x00, 0x08, 0x00, 0x0c, 0x00, 0x10, 0x00, 0x00, 0x00, 0x00, 0x00, 0x14, 0x00, 0x14, 0x00, 0x00, 0x00, 0x14, 0x00, 0x00, 0x00, 0x01, 0x00, 0x00, 0x00, 0x24, 0x00, 0x00, 0x00, 0x30, 0x00, 0x00, 0x00, 0x10, 0x00, 0x00, 0x00, 0x02, 0x00, 0x00, 0x00, 0x01, 0x00, 0x00, 0x00, 0x20, 0x00, 0x00, 0x00, 0x02, 0x00, 0x00, 0x00, 0xff, 0xff, 0xff, 0xff, 0x20, 0x00, 0x00, 0x00, 0x0b, 0x00, 0x00, 0x00, 0x64, 0x65, 0x6e, 0x73, 0x65, 0x5f, 0x69, 0x6e, 0x70, 0x75, 0x74, 0x00, 0xfc, 0xff, 0xff, 0xff, 0x04, 0x00, 0x04, 0x00, 0x04, 0x00, 0x00, 0x00};
const int model_data_len = 7644;
